▁xxunk	0
▁xxpad	0
▁xxbos	0
▁xxeos	0
▁xxfld	0
▁xxrep	0
▁xxwrep	0
▁xxup	0
▁xxmaj	0
<unk>	0
▁the	-3.34956
.	-3.3522
,	-3.47569
s	-3.60711
▁a	-3.89409
▁and	-4.04845
▁to	-4.06118
▁of	-4.07964
'	-4.13806
br	-4.34244
▁/>	-4.36221
<	-4.40757
▁is	-4.40927
▁I	-4.49333
▁in	-4.56437
▁it	-4.59179
▁that	-4.73537
▁this	-4.78681
t	-4.83985
▁was	-4.98424
▁movie	-5.01718
ing	-5.10398
▁	-5.13166
-	-5.13685
▁for	-5.25319
▁with	-5.28806
▁film	-5.35939
▁The	-5.37705
ed	-5.41168
▁but	-5.44239
▁on	-5.44306
▁be	-5.49599
▁have	-5.52232
▁"	-5.52341
▁as	-5.54234
▁you	-5.55651
▁not	-5.59013
▁(	-5.60403
▁are	-5.63745
ly	-5.66736
"	-5.74781
▁one	-5.79184
d	-5.80067
▁like	-5.87678
▁they	-5.87794
▁his	-5.88809
▁all	-5.91272
▁he	-5.92212
▁at	-5.93305
▁so	-5.98041
▁just	-6.00509
▁an	-6.01755
▁from	-6.04401
▁who	-6.04998
)	-6.04999
▁by	-6.05316
▁out	-6.0686
▁or	-6.06994
y	-6.08355
▁about	-6.10012
?	-6.15825
e	-6.1909
▁some	-6.22513
▁has	-6.25565
▁can	-6.29431
▁there	-6.31881
▁It	-6.32197
n	-6.32853
▁would	-6.33489
▁her	-6.34003
▁no	-6.34087
!	-6.34091
▁bad	-6.35696
▁good	-6.36039
▁up	-6.3749
▁if	-6.37644
▁even	-6.39014
m	-6.40377
▁more	-6.42191
▁time	-6.42747
▁what	-6.44237
▁only	-6.4441
▁make	-6.45348
▁This	-6.461
▁get	-6.46432
▁were	-6.46855
▁had	-6.494
▁really	-6.49746
▁me	-6.51092
▁could	-6.5266
The	-6.53337
...	-6.53865
▁very	-6.54959
▁when	-6.60335
er	-6.6172
▁my	-6.6265
▁been	-6.63832
▁see	-6.64387
▁much	-6.65986
▁A	-6.66007
▁story	-6.66395
▁their	-6.6656
▁do	-6.66977
:	-6.67722
▁she	-6.67881
I	-6.68229
▁than	-6.68578
a	-6.73196
ve	-6.73224
re	-6.74495
▁into	-6.7456
▁which	-6.74837
▁people	-6.79024
▁made	-6.80939
▁don	-6.81589
▁we	-6.83592
▁-	-6.84183
▁other	-6.85217
▁because	-6.85576
▁any	-6.86015
▁plot	-6.87931
▁how	-6.88268
▁too	-6.89438
▁way	-6.93894
▁movies	-6.96161
▁them	-6.96748
▁acting	-6.97236
▁most	-6.98455
▁think	-7.00096
▁will	-7.01049
▁better	-7.02445
▁off	-7.02951
▁him	-7.03031
▁characters	-7.03289
▁seen	-7.0349
▁know	-7.03579
▁over	-7.03998
l	-7.04629
▁ever	-7.04864
▁character	-7.05903
▁did	-7.06078
▁watch	-7.06581
▁should	-7.07076
▁And	-7.07411
▁never	-7.07659
▁show	-7.0803
al	-7.08207
▁first	-7.10164
▁say	-7.11137
▁also	-7.11658
▁then	-7.13023
▁your	-7.13066
▁look	-7.13807
▁But	-7.14157
▁well	-7.15101
▁where	-7.15627
es	-7.1933
▁little	-7.20617
o	-7.209
▁being	-7.21878
▁want	-7.223
▁many	-7.22691
▁'	-7.22976
▁thing	-7.22989
▁S	-7.23004
).	-7.23247
▁didn	-7.24899
▁two	-7.2543
▁something	-7.25434
;	-7.2583
▁after	-7.25919
▁i	-7.26194
▁scenes	-7.26826
▁There	-7.27562
▁scene	-7.27981
▁<	-7.28712
▁films	-7.28736
▁end	-7.29521
r	-7.29523
▁go	-7.30856
in	-7.31379
▁If	-7.31756
▁He	-7.3179
ll	-7.32955
▁nothing	-7.33086
▁watching	-7.33614
▁In	-7.34342
S	-7.36847
or	-7.37064
▁does	-7.3742
/	-7.37933
▁actually	-7.39451
▁these	-7.40963
▁doesn	-7.40996
▁back	-7.41143
▁actors	-7.41233
ting	-7.41443
▁through	-7.4168
▁great	-7.42505
▁going	-7.43253
▁worst	-7.43739
▁minutes	-7.44444
▁man	-7.45351
▁B	-7.4569
▁part	-7.46889
A	-7.47008
▁such	-7.47661
p	-7.47662
▁find	-7.4795
),	-7.48091
▁life	-7.48255
▁real	-7.48633
▁why	-7.49208
c	-7.49476
▁script	-7.50301
▁funny	-7.50473
le	-7.51255
▁still	-7.5142
▁work	-7.52027
▁director	-7.52283
▁few	-7.53331
▁before	-7.5431
▁lot	-7.55074
▁here	-7.56005
▁around	-7.57376
▁old	-7.57585
▁least	-7.57648
i	-7.57882
▁fact	-7.57914
▁love	-7.57927
▁pretty	-7.5799
▁best	-7.58016
▁down	-7.5836
▁those	-7.60055
▁guy	-7.60871
▁same	-7.62521
▁give	-7.63231
▁enough	-7.63594
▁its	-7.64028
▁seems	-7.64734
▁thought	-7.65729
▁another	-7.66817
▁while	-7.69198
▁whole	-7.70587
and	-7.70668
▁got	-7.70712
▁original	-7.71874
th	-7.73825
▁horror	-7.73867
on	-7.7418
the	-7.74244
▁isn	-7.74569
▁again	-7.74598
▁C	-7.74747
▁take	-7.75005
▁things	-7.75129
▁un	-7.75294
▁big	-7.75423
▁might	-7.75442
▁point	-7.75929
▁feel	-7.76062
▁years	-7.77138
▁every	-7.77516
▁They	-7.77547
▁interesting	-7.77685
se	-7.7804
b	-7.7816
▁stupid	-7.78277
▁money	-7.78322
▁though	-7.7842
▁P	-7.78929
▁must	-7.79198
▁anything	-7.80916
▁poor	-7.8097
en	-7.82351
▁long	-7.82934
T	-7.83576
▁hard	-7.84051
▁far	-7.84217
▁reason	-7.8426
&	-7.85684
▁right	-7.86214
▁now	-7.86259
te	-7.86567
▁awful	-7.86613
▁put	-7.86618
▁book	-7.87083
▁action	-7.87312
▁am	-7.87526
▁2	-7.88417
an	-7.8842
▁gets	-7.88446
▁quite	-7.8889
f	-7.88915
▁waste	-7.89128
▁kind	-7.89237
▁come	-7.89486
▁bit	-7.89757
▁without	-7.89995
▁believe	-7.90036
ers	-7.90133
▁effects	-7.913
▁away	-7.91599
▁comedy	-7.91765
ic	-7.9205
▁sure	-7.92205
C	-7.92252
▁What	-7.92859
▁boring	-7.93147
▁completely	-7.93311
▁trying	-7.93591
ion	-7.93778
▁done	-7.93852
▁You	-7.94153
▁cast	-7.9445
g	-7.9483
▁else	-7.95099
almost	-7.96107
k	-7.96261
▁saw	-7.96601
▁someone	-7.96706
▁re	-7.97082
▁name	-7.98129
▁anyone	-7.98837
▁making	-7.99215
it	-7.99374
▁looking	-7.9961
▁That	-8.00225
able	-8.00952
▁probably	-8.01226
".	-8.01283
▁goes	-8.01371
▁world	-8.01761
▁seem	-8.01771
▁idea	-8.01954
▁girl	-8.02238
▁sense	-8.02269
▁tell	-8.03788
▁terrible	-8.03885
less	-8.04726
▁read	-8.04728
▁place	-8.04756
D	-8.04786
ar	-8.0542
▁main	-8.05527
▁role	-8.06102
▁wasn	-8.06373
▁left	-8.07159
▁TV	-8.07245
--	-8.07975
▁D	-8.08009
as	-8.0839
R	-8.08532
▁screen	-8.08916
▁fun	-8.0975
▁found	-8.10011
▁10	-8.10018
▁No	-8.1044
▁worse	-8.10558
▁new	-8.11318
h	-8.11482
ce	-8.11913
▁set	-8.11968
▁us	-8.11987
▁instead	-8.1236
▁So	-8.12669
(	-8.12761
▁times	-8.12857
M	-8.13225
▁own	-8.13461
▁always	-8.13555
▁let	-8.13609
▁looks	-8.1366
",	-8.13689
▁camera	-8.14115
▁American	-8.14495
is	-8.14833
▁low	-8.15197
▁since	-8.15285
▁use	-8.1569
▁may	-8.15944
man	-8.16458
▁between	-8.16496
This	-8.16516
▁last	-8.16538
▁watched	-8.16615
▁actor	-8.16936
▁rather	-8.17109
▁special	-8.1711
▁budget	-8.1722
▁When	-8.17237
▁woman	-8.17737
u	-8.18218
▁laugh	-8.18889
▁everything	-8.18972
us	-8.19104
▁M	-8.19142
▁start	-8.19182
P	-8.19817
▁audience	-8.20029
▁shot	-8.20762
▁music	-8.20796
▁guess	-8.20871
▁either	-8.20895
▁sound	-8.21366
el	-8.2163
▁She	-8.22066
▁hav	-8.22334
ur	-8.22858
▁F	-8.23089
It	-8.23299
▁wrong	-8.23466
▁need	-8.23597
ness	-8.23721
▁ending	-8.23749
▁fan	-8.24042
▁Why	-8.242
▁As	-8.24279
▁horrible	-8.2478
▁try	-8.24873
▁T	-8.25307
▁comes	-8.25309
▁young	-8.25415
▁course	-8.25447
▁short	-8.25447
▁dialogue	-8.2545
▁rest	-8.25523
▁job	-8.268
▁DVD	-8.26807
▁To	-8.27197
▁worth	-8.27215
▁half	-8.27493
▁line	-8.27916
▁K	-8.27942
▁day	-8.28362
▁said	-8.28852
ri	-8.29496
▁head	-8.29562
▁under	-8.29622
▁high	-8.30428
▁seeing	-8.3064
▁remember	-8.30946
▁mean	-8.31271
▁once	-8.31504
ra	-8.3215
▁guys	-8.32151
▁care	-8.32156
▁different	-8.32388
▁E	-8.32868
▁For	-8.32936
▁both	-8.32952
▁each	-8.33092
▁friends	-8.33639
ity	-8.33651
▁series	-8.33851
▁Not	-8.33937
▁kids	-8.34453
▁three	-8.34544
▁went	-8.34601
▁absolutely	-8.34611
▁sort	-8.35287
▁everyone	-8.35314
to	-8.35639
▁person	-8.35963
▁3	-8.35975
▁case	-8.3602
▁women	-8.36031
▁production	-8.36054
▁help	-8.36417
est	-8.36578
▁Well	-8.36614
▁used	-8.36971
▁play	-8.37397
▁yet	-8.37552
▁video	-8.37565
B	-8.37585
▁nice	-8.37909
▁simply	-8.38275
▁version	-8.38276
▁our	-8.38392
▁flick	-8.38631
▁sex	-8.3879
▁supposed	-8.38802
▁played	-8.38822
▁together	-8.39039
▁run	-8.39241
st	-8.393
▁doing	-8.39385
▁b	-8.39645
▁ridiculous	-8.39808
▁crap	-8.40133
▁piece	-8.40222
▁next	-8.40583
▁fall	-8.40588
▁kill	-8.40949
▁dur	-8.41022
▁plays	-8.41065
▁example	-8.41364
ie	-8.4138
▁however	-8.41414
N	-8.41783
▁lack	-8.41976
▁THE	-8.42518
▁We	-8.42895
ies	-8.43025
▁men	-8.4345
▁seemed	-8.43628
▁death	-8.43746
▁full	-8.43877
up	-8.44182
▁All	-8.44294
▁sit	-8.44323
▁wife	-8.44588
▁night	-8.44656
w	-8.44904
▁killed	-8.45018
▁performance	-8.45099
▁cheap	-8.45365
▁family	-8.45377
▁turn	-8.45501
ous	-8.45786
▁entire	-8.45833
at	-8.46105
▁shows	-8.46194
▁black	-8.46223
▁However	-8.46284
ther	-8.46327
▁keep	-8.46767
▁ga	-8.46893
▁O	-8.46913
▁attempt	-8.47009
▁Hollywood	-8.47038
▁school	-8.47737
▁small	-8.47844
▁usual	-8.47851
▁quality	-8.47857
▁felt	-8.47857
▁came	-8.47871
▁mind	-8.47924
ne	-8.4804
ter	-8.48151
▁car	-8.48172
▁One	-8.48273
▁4	-8.48596
ation	-8.48702
▁G	-8.48705
▁recommend	-8.49051
▁given	-8.49101
▁takes	-8.49263
▁John	-8.49591
▁especially	-8.49616
▁house	-8.49672
▁understand	-8.49726
▁star	-8.49862
▁My	-8.50092
▁problem	-8.50249
▁year	-8.50379
▁himself	-8.50387
▁home	-8.50387
ish	-8.507
▁de	-8.50773
am	-8.50872
▁second	-8.51139
▁wanted	-8.51144
▁tries	-8.51255
▁R	-8.51432
▁H	-8.51593
▁lead	-8.5176
▁save	-8.51846
▁Don	-8.51854
▁couple	-8.52119
▁town	-8.52182
▁along	-8.52432
K	-8.52458
▁itself	-8.52996
▁true	-8.5302
E	-8.53248
▁playing	-8.53712
▁already	-8.53881
▁etc	-8.53881
▁	-8.53884
ch	-8.54033
▁On	-8.54977
▁enjoy	-8.55175
▁close	-8.55293
one	-8.5543
▁lines	-8.55628
▁near	-8.55673
L	-8.56036
▁p	-8.56565
▁dead	-8.56708
ist	-8.56795
▁side	-8.56977
▁war	-8.57323
▁less	-8.57546
▁After	-8.57581
▁face	-8.58271
▁monster	-8.58492
ro	-8.5863
la	-8.58672
id	-8.59095
▁title	-8.59363
▁maybe	-8.59442
▁W	-8.59618
▁Then	-8.60112
▁decent	-8.60333
▁direction	-8.60336
▁written	-8.60353
▁slow	-8.60948
In	-8.61072
▁writing	-8.61272
▁classic	-8.61298
▁called	-8.61733
▁writer	-8.62478
z	-8.62703
▁unti	-8.6272
▁father	-8.63236
▁friend	-8.63415
▁wonder	-8.63419
▁c	-8.63445
▁mess	-8.63796
If	-8.63839
▁L	-8.64162
▁Even	-8.64249
Y	-8.64299
▁stuff	-8.65165
▁pick	-8.65206
▁annoying	-8.65225
▁matter	-8.65419
ian	-8.65751
▁myself	-8.6616
▁stop	-8.66162
▁How	-8.66246
ry	-8.66959
▁drama	-8.67148
▁God	-8.67159
▁5	-8.672
tally	-8.6727
▁complete	-8.67562
▁1	-8.6763
▁manage	-8.68152
▁beginning	-8.68194
▁won	-8.68226
▁act	-8.69101
▁At	-8.6919
▁dialog	-8.69216
▁silly	-8.69222
▁obvious	-8.69915
G	-8.701
▁humor	-8.70246
▁picture	-8.70279
O	-8.70618
▁hour	-8.70741
▁mother	-8.71324
▁stay	-8.71374
▁fans	-8.71419
▁Also	-8.7142
▁thinking	-8.71533
▁cut	-8.71541
▁top	-8.71891
ive	-8.72111
▁local	-8.72382
▁female	-8.72396
!!!	-8.7272
ir	-8.72758
▁meet	-8.72994
ant	-8.73229
▁group	-8.73455
▁obviously	-8.73816
▁sever	-8.73828
▁son	-8.73847
▁extreme	-8.74542
▁predictable	-8.74548
▁call	-8.74635
▁fight	-8.75123
ty	-8.75484
▁dull	-8.75654
▁fair	-8.75663
▁cool	-8.75682
▁later	-8.75704
▁hand	-8.75837
▁killer	-8.76387
!)	-8.76394
▁poorly	-8.76541
▁stars	-8.76577
na	-8.76597
▁entertaining	-8.76838
et	-8.76871
▁against	-8.76876
▁talent	-8.76904
▁happens	-8.77048
▁game	-8.77378
▁episode	-8.77398
ton	-8.77695
▁themselves	-8.77876
▁bunch	-8.77876
▁co	-8.77933
▁becomes	-8.78274
▁--	-8.78363
▁live	-8.78435
▁often	-8.78645
▁cinema	-8.79
▁cover	-8.79023
▁weak	-8.79053
▁disappointed	-8.79056
▁become	-8.79824
▁boy	-8.7992
3	-8.80101
▁pay	-8.80161
▁hell	-8.80165
fi	-8.80194
lo	-8.80197
▁expect	-8.80276
There	-8.80704
▁hours	-8.80828
▁wish	-8.81247
▁beautiful	-8.81325
▁genre	-8.81364
▁white	-8.8138
▁OK	-8.81444
▁talk	-8.81473
▁took	-8.81564
ha	-8.81907
il	-8.81968
!!	-8.8201
▁mention	-8.82057
▁started	-8.82184
un	-8.82481
▁effort	-8.82501
▁voice	-8.82501
▁children	-8.82501
▁sad	-8.82502
▁fails	-8.83119
▁happen	-8.83506
▁hate	-8.83542
▁hero	-8.83596
▁except	-8.83653
▁spend	-8.83709
ke	-8.83871
▁turns	-8.84064
▁N	-8.84102
▁sequel	-8.84565
▁Man	-8.84614
▁wouldn	-8.8466
▁Just	-8.85014
▁order	-8.85064
F	-8.85108
lthough	-8.85393
▁words	-8.85594
ge	-8.85638
▁blood	-8.85902
▁spent	-8.86122
▁daughter	-8.86134
▁early	-8.86166
▁type	-8.86236
▁Of	-8.86462
ent	-8.86607
▁final	-8.86785
but	-8.86951
▁dark	-8.87348
▁truly	-8.8735
▁tried	-8.87355
ment	-8.87432
▁review	-8.87553
be	-8.87882
▁decide	-8.88356
▁parts	-8.8839
ck	-8.88446
▁viewer	-8.88484
▁lost	-8.88623
▁talking	-8.89258
▁move	-8.8948
▁saying	-8.89695
son	-8.89708
▁jokes	-8.89749
▁rating	-8.89756
▁huge	-8.89869
▁First	-8.89984
▁girls	-8.89993
▁bring	-8.9022
▁gore	-8.90445
And	-8.9084
▁hit	-8.90907
."	-8.91034
▁involved	-8.91248
▁Mr	-8.91349
▁Now	-8.91379
▁interest	-8.91389
▁figure	-8.91481
ate	-8.9174
▁hope	-8.9197
ma	-8.92152
▁dumb	-8.92279
▁moments	-8.92291
▁self	-8.92429
▁human	-8.92466
▁fine	-8.92466
out	-8.92526
taking	-8.92542
▁across	-8.92598
age	-8.92675
▁Oh	-8.92676
▁finally	-8.92815
▁happened	-8.92938
ling	-8.93511
▁pathetic	-8.93786
▁team	-8.93788
▁20	-8.93883
W	-8.94456
▁Ed	-8.94887
▁footage	-8.95099
▁average	-8.95132
▁evil	-8.95166
king	-8.95192
▁Whi	-8.95201
▁cannot	-8.95253
▁follow	-8.95381
▁pre	-8.95642
▁f	-8.95769
▁actress	-8.96371
▁result	-8.96447
▁violence	-8.96447
▁behind	-8.96447
sh	-8.96467
▁space	-8.96484
▁throughout	-8.9651
▁De	-8.96741
▁st	-8.96762
▁total	-8.97395
▁liked	-8.97641
if	-8.97803
▁running	-8.97828
▁room	-8.97884
▁Some	-8.98008
▁able	-8.98126
▁shots	-8.98152
▁heart	-8.98632
▁ex	-8.98705
▁serious	-8.98903
▁novel	-8.99216
▁possible	-8.99239
▁With	-8.99269
▁Michael	-8.99285
▁scary	-8.99334
▁style	-8.99378
▁coming	-8.99404
▁others	-8.99536
▁His	-8.99552
▁wasted	-8.99588
no	-8.99835
ine	-8.9994
▁turned	-8.99977
um	-9.00421
▁strange	-9.00477
▁write	-9.00578
▁major	-9.00614
▁kept	-9.00615
ary	-9.00624
▁late	-9.00655
▁hold	-9.00769
▁joke	-9.00786
▁Do	-9.009
like	-9.00972
▁walk	-9.01424
x	-9.01465
▁break	-9.01605
▁IMDb	-9.02043
▁documentary	-9.02044
▁message	-9.02076
▁check	-9.02099
▁exactly	-9.02121
▁Maybe	-9.02189
▁moment	-9.02211
▁kid	-9.02225
▁art	-9.02309
▁directed	-9.02315
ally	-9.0239
pe	-9.02784
▁soon	-9.02971
ted	-9.03206
▁yourself	-9.03492
2	-9.03492
▁pull	-9.03492
*	-9.03512
▁Or	-9.03596
▁seriously	-9.03858
▁heard	-9.03906
▁gun	-9.0409
▁appears	-9.04181
▁h	-9.04241
ul	-9.04343
▁age	-9.04472
▁cheesy	-9.04963
▁subject	-9.04963
▁knew	-9.04963
▁body	-9.04968
tic	-9.05023
▁editing	-9.05041
▁certainly	-9.05219
▁career	-9.05363
▁non	-9.05887
!"	-9.06354
yond	-9.06447
▁English	-9.06487
▁box	-9.06519
▁Van	-9.06557
▁Robert	-9.06795
▁opening	-9.07048
he	-9.07176
which	-9.07378
▁nor	-9.07514
▁Ma	-9.07921
▁opinion	-9.0797
▁doubt	-9.07971
▁weird	-9.07971
▁hair	-9.07981
▁New	-9.07982
▁NOT	-9.07993
▁sub	-9.0803
▁change	-9.08082
▁problems	-9.08217
▁leave	-9.08311
▁none	-9.08506
▁ago	-9.08565
▁avoid	-9.08623
▁experience	-9.09203
▁Dr	-9.09235
▁light	-9.09237
▁Re	-9.09274
ful	-9.0928
9	-9.09322
1	-9.09545
▁Instead	-9.09566
▁past	-9.0979
▁wear	-9.09905
▁ten	-9.09953
▁open	-9.09997
▁lame	-9.10172
▁cop	-9.10438
▁J	-9.10507
▁add	-9.10523
▁feeling	-9.10615
▁whe	-9.10752
▁power	-9.11042
▁sometimes	-9.11075
▁level	-9.11114
▁redeem	-9.11125
▁sci	-9.11184
ism	-9.11414
ig	-9.11473
▁decided	-9.11479
▁starts	-9.11587
▁con	-9.11603
▁die	-9.1179
▁V	-9.12049
What	-9.12066
not	-9.12147
But	-9.12152
▁needed	-9.12155
▁bother	-9.12606
▁French	-9.12659
▁cinematography	-9.12659
▁score	-9.12666
▁child	-9.1268
ley	-9.12899
ad	-9.13603
▁killing	-9.13927
▁shown	-9.1404
▁days	-9.14175
▁material	-9.14272
▁project	-9.14272
▁trash	-9.14274
▁alone	-9.14277
▁girlfriend	-9.14286
▁single	-9.14304
▁d	-9.14307
▁storyline	-9.14373
▁apparently	-9.14437
▁reviews	-9.1456
▁released	-9.14567
▁Mo	-9.1463
so	-9.14638
▁rent	-9.14901
ever	-9.14923
▁badly	-9.15035
▁Be	-9.15178
▁says	-9.15274
▁clear	-9.1561
▁post	-9.15639
▁premise	-9.15911
▁history	-9.15912
▁crime	-9.15926
▁stories	-9.15956
▁told	-9.15963
....	-9.16026
▁thriller	-9.16038
▁begin	-9.16497
▁taken	-9.1664
▁m	-9.16792
▁speak	-9.16947
▁release	-9.17298
▁admit	-9.17575
▁attention	-9.17578
▁bigge	-9.17645
nt	-9.17654
▁quickly	-9.17692
▁performances	-9.18134
ia	-9.18196
▁...	-9.18397
▁enjoyed	-9.1842
So	-9.18472
▁feature	-9.18606
▁four	-9.19238
▁excellent	-9.19273
ner	-9.19288
▁t	-9.19356
▁Unfortunately	-9.19411
▁particularly	-9.19556
for	-9.19685
im	-9.20035
▁word	-9.20071
go	-9.20137
5	-9.20399
▁buy	-9.20429
ut	-9.20527
V	-9.20869
▁murder	-9.20931
▁chance	-9.21001
▁crew	-9.2101
▁based	-9.21105
▁unless	-9.21235
▁clearly	-9.21365
▁eyes	-9.21488
▁lives	-9.2168
mo	-9.21887
▁hot	-9.21928
mp	-9.22327
▁front	-9.2266
▁potential	-9.22751
▁imagine	-9.22766
der	-9.22773
▁basically	-9.22797
▁class	-9.22801
▁perhaps	-9.22809
▁David	-9.2283
▁reading	-9.2298
▁parents	-9.23129
▁due	-9.23201
▁War	-9.23224
om	-9.23861
ho	-9.23897
▁shoot	-9.23918
▁important	-9.24224
	-9.24537
▁excuse	-9.24537
▁husband	-9.24564
▁anyway	-9.24601
▁water	-9.24622
▁somewhat	-9.2464
▁bored	-9.24644
▁pointless	-9.24679
▁Jack	-9.24681
▁Most	-9.24688
▁Yes	-9.24746
As	-9.24762
▁dis	-9.25028
▁view	-9.25245
▁upon	-9.25314
▁sequences	-9.2533
▁r	-9.25345
▁aren	-9.25385
▁brother	-9.25423
ster	-9.25436
▁credit	-9.25499
▁wait	-9.25744
ure	-9.25802
▁e	-9.25958
▁straight	-9.26354
▁simple	-9.26355
▁large	-9.26356
giving	-9.26357
▁favorite	-9.26358
▁entertainment	-9.26375
oo	-9.26641
movie	-9.2668
▁dog	-9.26828
▁appear	-9.26868
v	-9.26885
H	-9.27096
▁theater	-9.27288
ated	-9.27342
who	-9.2798
▁fire	-9.28089
▁An	-9.28096
▁famous	-9.28207
▁purpose	-9.28207
▁store	-9.28207
▁stick	-9.28218
▁please	-9.28246
▁overall	-9.2828
▁sorry	-9.28331
▁po	-9.28406
▁camp	-9.29014
▁hear	-9.29229
▁villain	-9.29235
▁sequence	-9.29262
ble	-9.29307
J	-9.29375
▁minute	-9.29377
▁sets	-9.29413
▁comment	-9.29513
▁learn	-9.29632
▁actual	-9.29754
▁Go	-9.29902
ag	-9.30069
▁living	-9.30095
▁country	-9.30104
▁suspense	-9.30155
▁happy	-9.30181
▁Who	-9.30194
▁somehow	-9.30202
My	-9.30217
▁forced	-9.30279
▁6	-9.30397
▁ship	-9.30423
os	-9.30507
▁stand	-9.30576
▁pass	-9.3081
▁Ra	-9.30842
co	-9.31098
▁cause	-9.31112
?)	-9.31253
▁deal	-9.31397
▁flat	-9.31407
▁jump	-9.31417
ta	-9.31732
▁ma	-9.31796
▁working	-9.31838
▁roles	-9.3185
▁ask	-9.31932
▁Indian	-9.31933
▁count	-9.31946
▁police	-9.31989
▁bizarre	-9.32017
▁positive	-9.32017
▁attack	-9.32018
▁respect	-9.32025
▁believable	-9.32039
▁support	-9.32046
▁James	-9.32069
▁definitely	-9.32077
▁Wood	-9.32101
▁painful	-9.32253
▁offer	-9.32317
ni	-9.32783
▁explain	-9.32876
ance	-9.32939
▁gives	-9.33038
▁number	-9.33187
▁alien	-9.33194
▁value	-9.33203
▁song	-9.3349
▁super	-9.33601
")	-9.33675
▁mostly	-9.33757
▁escape	-9.3379
▁middle	-9.33978
▁television	-9.33979
▁deep	-9.33998
▁brain	-9.34039
▁battle	-9.34045
▁Fro	-9.34451
ably	-9.34639
▁works	-9.34741
▁*	-9.34817
▁rate	-9.35098
▁question	-9.35265
▁today	-9.3534
▁certain	-9.35629
▁despi	-9.35657
▁suppose	-9.35674
▁known	-9.35851
▁agree	-9.3592
▁Bo	-9.35934
▁trouble	-9.35977
▁common	-9.35978
▁cartoon	-9.35978
▁disappointment	-9.3598
▁amount	-9.36032
▁Nothing	-9.36033
land	-9.36036
ud	-9.36056
▁five	-9.36061
▁strong	-9.36069
▁plain	-9.3608
em	-9.36086
0	-9.36396
▁land	-9.36695
U	-9.36813
▁comments	-9.36859
▁credits	-9.36983
do	-9.37028
▁Let	-9.37201
▁previous	-9.37663
▁list	-9.37697
vi	-9.3794
▁Un	-9.3797
▁similar	-9.38014
▁garbage	-9.38018
▁describe	-9.38019
▁okay	-9.38074
▁barely	-9.3811
▁haven	-9.38271
line	-9.38375
▁U	-9.38461
▁expected	-9.38825
▁hop	-9.38834
▁accent	-9.39419
▁situation	-9.39451
▁build	-9.39529
well	-9.39547
ol	-9.39664
▁present	-9.39677
of	-9.397
▁perfect	-9.39735
▁British	-9.40102
▁among	-9.40126
▁Like	-9.40155
▁needs	-9.40378
▁forward	-9.40404
io	-9.4047
die	-9.40581
ick	-9.40675
▁building	-9.40722
▁Al	-9.41084
▁acted	-9.41168
▁ends	-9.41185
▁twist	-9.41192
▁elements	-9.41258
▁door	-9.41581
▁ended	-9.41704
that	-9.41763
▁state	-9.41937
▁showing	-9.42155
▁suggest	-9.42229
▁typical	-9.42229
▁easy	-9.42229
▁mix	-9.42234
▁hilarious	-9.42262
▁modern	-9.42274
▁nowhere	-9.42301
▁using	-9.42359
▁reality	-9.42443
que	-9.42552
▁events	-9.42677
▁remind	-9.42858
7	-9.42919
▁sh	-9.42973
▁toward	-9.431
▁hands	-9.43224
▁expecting	-9.43378
▁writers	-9.43989
▁Tom	-9.4409
▁realize	-9.44201
ap	-9.44263
▁eye	-9.44337
ug	-9.44345
this	-9.44351
▁difficult	-9.44403
▁nudity	-9.44403
▁above	-9.44405
▁vote	-9.44408
▁forget	-9.44411
▁create	-9.44425
▁OF	-9.44442
▁Scott	-9.44463
▁fish	-9.44471
▁rock	-9.44474
▁laughable	-9.4452
▁leads	-9.44646
▁90	-9.44653
▁anti	-9.4483
▁form	-9.44838
time	-9.44998
▁songs	-9.45255
▁mentioned	-9.45428
4	-9.45451
ard	-9.45539
▁rip	-9.45822
▁comic	-9.46144
ER	-9.46302
▁mistake	-9.46439
ier	-9.46465
▁background	-9.46625
▁disaster	-9.46625
▁paid	-9.46625
▁odd	-9.46626
▁CGI	-9.46638
▁male	-9.4676
▁theme	-9.46865
▁viewers	-9.47046
▁missing	-9.47066
ow	-9.47085
▁Ha	-9.47535
nd	-9.476
per	-9.4764
▁La	-9.4796
▁discover	-9.48254
▁amazing	-9.48539
▁incredibl	-9.48689
▁7	-9.48831
▁possib	-9.48842
▁prison	-9.48857
▁college	-9.48898
▁soundtrack	-9.48898
▁future	-9.48899
▁fast	-9.48904
▁screenplay	-9.48909
▁gang	-9.48914
▁mood	-9.48922
▁Italian	-9.48933
▁Perhaps	-9.48947
▁bomb	-9.48963
▁George	-9.48974
▁Richard	-9.48975
▁9	-9.49124
▁Bad	-9.49153
j	-9.49167
▁drive	-9.49302
▁attempts	-9.4953
▁interested	-9.49704
came	-9.4974
▁inside	-9.49846
▁pro	-9.4986
▁filmmakers	-9.50097
hi	-9.50129
all	-9.50628
▁free	-9.50697
▁sc	-9.5074
▁By	-9.50787
▁means	-9.50842
▁effect	-9.5085
▁Le	-9.50906
dy	-9.50981
▁sick	-9.51212
▁regard	-9.51224
▁control	-9.51224
▁serve	-9.51224
▁wooden	-9.51225
▁70	-9.51233
▁slasher	-9.51248
▁fake	-9.51256
volving	-9.51314
▁former	-9.51385
▁win	-9.51757
▁Mar	-9.52014
▁holes	-9.52129
▁deliver	-9.52523
▁fighting	-9.52548
▁points	-9.52735
▁throw	-9.52877
▁80	-9.52981
▁hardly	-9.53101
▁suit	-9.53325
ba	-9.53354
▁mediocre	-9.53605
▁wrote	-9.53605
▁neither	-9.53605
▁dress	-9.53664
▁military	-9.5367
▁30	-9.5376
▁successful	-9.53804
▁whatever	-9.53843
▁cat	-9.53844
▁setting	-9.53875
off	-9.541
▁fit	-9.54126
▁beat	-9.5417
▁provide	-9.54232
▁meant	-9.54243
▁Her	-9.54558
▁fill	-9.5491
▁Here	-9.55016
▁ha	-9.55279
op	-9.55334
▁leaves	-9.55496
ING	-9.55557
da	-9.55582
▁America	-9.55784
▁laughing	-9.55997
▁basic	-9.56032
▁smart	-9.56044
▁computer	-9.56044
▁bought	-9.56057
▁concept	-9.5612
▁produced	-9.56131
▁trip	-9.56184
▁la	-9.56311
▁god	-9.56471
▁lo	-9.56523
ng	-9.56654
▁directing	-9.56676
8	-9.56698
ill	-9.56942
▁drug	-9.573
▁direct	-9.5736
ang	-9.57452
▁knows	-9.57457
ex	-9.57527
▁plan	-9.57779
mar	-9.57794
with	-9.57957
▁Car	-9.57988
▁fl	-9.57992
etic	-9.58057
▁honest	-9.58191
▁particular	-9.58194
▁pace	-9.58208
▁creature	-9.58294
▁secret	-9.5853
▁desert	-9.58545
▁ground	-9.58547
▁various	-9.5855
▁development	-9.58553
▁remake	-9.58556
▁romantic	-9.58567
▁third	-9.58582
???	-9.58596
▁notice	-9.58597
▁disappointing	-9.58678
▁send	-9.58688
▁thrown	-9.58733
▁failed	-9.58764
▁taste	-9.58764
▁bar	-9.58776
▁surprised	-9.58819
▁reasons	-9.58829
▁oh	-9.5883
▁considered	-9.5899
light	-9.59246
▁gay	-9.59255
▁15	-9.59343
▁Lee	-9.59402
day	-9.59439
▁Me	-9.59507
▁Co	-9.59681
▁torture	-9.59812
ach	-9.59859
▁touch	-9.59996
▁consider	-9.6
▁producers	-9.60229
uff	-9.60414
some	-9.60525
▁general	-9.60754
▁sign	-9.60828
▁German	-9.60873
You	-9.60881
▁relationship	-9.60922
▁victim	-9.60966
nna	-9.61027
ga	-9.61105
▁earlier	-9.61108
▁herself	-9.61108
▁period	-9.61108
▁political	-9.61108
▁Japanese	-9.61108
▁memorable	-9.61109
▁tale	-9.61109
▁cross	-9.6111
▁train	-9.6111
▁appreciate	-9.6111
▁adaptation	-9.61114
▁rich	-9.61114
▁yes	-9.61125
▁agent	-9.61131
▁porn	-9.61138
?"	-9.61158
▁moving	-9.61183
▁slightly	-9.61213
▁Watch	-9.6128
▁gone	-9.61337
▁equal	-9.61429
▁musical	-9.61457
▁copy	-9.61489
▁cr	-9.61529
ab	-9.61669
ice	-9.61689
▁cute	-9.61788
me	-9.61799
▁sadly	-9.6188
side	-9.62352
you	-9.62511
▁fr	-9.62587
top	-9.62642
▁island	-9.62697
▁features	-9.62733
▁grow	-9.6296
▁party	-9.63084
▁insult	-9.63105
▁includ	-9.63205
▁50	-9.63208
▁Lo	-9.63304
rs	-9.63335
ns	-9.6341
▁King	-9.6345
nother	-9.63461
▁sexual	-9.63512
▁drag	-9.63628
▁clever	-9.6371
▁Christian	-9.63717
▁choice	-9.63739
▁industry	-9.63739
▁clothes	-9.6374
▁crazy	-9.63741
▁pure	-9.63769
▁otherwise	-9.63775
▁filmed	-9.63778
▁apart	-9.63798
▁perform	-9.63806
▁crappy	-9.63812
▁earth	-9.63826
▁NO	-9.63997
▁sp	-9.64018
red	-9.6423
ten	-9.64276
▁rented	-9.6448
▁died	-9.64678
▁g	-9.65175
▁wondering	-9.65435
rought	-9.65568
▁shame	-9.65887
▁mis	-9.65904
art	-9.65975
og	-9.65987
▁visual	-9.6608
ence	-9.6609
For	-9.66216
▁within	-9.66301
▁loved	-9.66363
▁company	-9.66442
▁plenty	-9.66442
▁scientist	-9.66442
▁giant	-9.66442
▁Moore	-9.66442
▁shallow	-9.66443
▁amusing	-9.66443
▁sister	-9.66444
▁random	-9.66445
▁personal	-9.66447
▁absurd	-9.66467
▁wall	-9.66482
▁catch	-9.66525
▁fell	-9.66557
▁Star	-9.66652
▁compared	-9.66663
▁wonderful	-9.6684
▁Too	-9.66842
par	-9.67235
▁shooting	-9.67448
my	-9.67527
▁walking	-9.6763
▁soldiers	-9.67642
▁lacks	-9.67673
▁members	-9.6809
▁plane	-9.68129
old	-9.68136
uit	-9.68163
▁appeal	-9.68577
▁sleep	-9.68597
▁air	-9.68638
▁cliché	-9.68978
▁surprise	-9.68983
▁Seagal	-9.6922
▁remote	-9.6922
▁turkey	-9.6922
▁whatsoever	-9.6922
▁western	-9.6922
▁conclusion	-9.69221
▁rubbish	-9.69225
▁further	-9.69225
▁8	-9.69226
▁atmosphere	-9.69229
▁unbelievable	-9.69238
▁fear	-9.6924
▁portrayal	-9.69269
▁Peter	-9.69297
▁easily	-9.69324
▁constantly	-9.69344
▁display	-9.69403
een	-9.69426
▁th	-9.69465
To	-9.69495
▁folks	-9.69577
rew	-9.69587
▁Mary	-9.69656
aw	-9.69735
▁created	-9.69789
cy	-9.69848
▁sing	-9.69859
▁sounds	-9.69873
ker	-9.7001
▁added	-9.70038
ite	-9.70105
▁lover	-9.70354
uch	-9.70824
tal	-9.70913
?!	-9.70963
ned	-9.71086
▁Jo	-9.71286
▁chase	-9.71921
▁Di	-9.72061
▁channel	-9.72077
▁travel	-9.72077
▁truth	-9.72077
▁Earth	-9.72077
▁interview	-9.72079
▁impression	-9.72086
▁MST	-9.72095
▁books	-9.72122
▁normal	-9.72142
▁charge	-9.72144
▁unfortunately	-9.72184
▁sucked	-9.72397
▁Where	-9.72465
▁Although	-9.72611
▁realistic	-9.73023
▁waiting	-9.73063
ial	-9.73271
▁episodes	-9.73312
ily	-9.73403
▁happening	-9.73582
▁sat	-9.73733
ay	-9.73915
▁12	-9.74244
ny	-9.74249
▁di	-9.74251
▁per	-9.74435
▁exist	-9.74522
▁Steve	-9.74845
▁stage	-9.74851
▁dance	-9.74927
▁brilliant	-9.75018
▁answer	-9.75018
▁horse	-9.75018
▁lousy	-9.75018
▁ugly	-9.75021
▁animation	-9.75021
▁impossible	-9.75024
▁glad	-9.75025
▁match	-9.75025
▁gangster	-9.75032
▁Jim	-9.75038
▁Dead	-9.75042
▁mere	-9.75054
▁immediately	-9.75055
▁tired	-9.75092
▁enjoyable	-9.7513
We	-9.75132
▁extra	-9.75267
▁Joe	-9.75408
▁Da	-9.75552
way	-9.75565
▁younger	-9.75625
▁considering	-9.75738
ger	-9.75978
▁viewing	-9.76039
by	-9.76054
lin	-9.76116
▁William	-9.76237
▁costumes	-9.76328
▁sl	-9.76445
▁highly	-9.76517
▁18	-9.76598
▁bed	-9.77017
▁sucks	-9.77026
▁bi	-9.77034
even	-9.77445
When	-9.77455
ber	-9.77516
▁emotional	-9.77773
ca	-9.77884
▁cult	-9.78039
▁century	-9.78048
▁confusing	-9.78048
▁embarrassing	-9.78048
▁explanation	-9.78048
▁violent	-9.78048
▁Great	-9.78049
▁depth	-9.78049
▁York	-9.78049
▁leaving	-9.7805
▁nature	-9.7805
▁baby	-9.78052
▁rare	-9.78058
▁lady	-9.78059
▁saving	-9.78061
▁deserve	-9.78069
▁public	-9.78088
▁climax	-9.78114
▁mine	-9.78122
▁prove	-9.78122
▁Everything	-9.78132
▁Charles	-9.78147
▁confused	-9.78158
▁demon	-9.78226
▁motion	-9.7823
▁US	-9.78332
▁vampire	-9.78361
gu	-9.78366
▁ideas	-9.78402
▁watchable	-9.78558
ade	-9.78786
▁changed	-9.78857
▁Che	-9.79083
▁laughs	-9.79094
ak	-9.79134
▁questions	-9.7917
▁require	-9.7917
▁boys	-9.79194
▁entirely	-9.79373
Not	-9.79457
led	-9.79484
ub	-9.79706
min	-9.79866
ah	-9.79874
▁shock	-9.80089
▁reviewer	-9.80116
▁sa	-9.80136
ron	-9.80528
▁changes	-9.80533
▁ride	-9.80659
▁finish	-9.80716
▁ways	-9.80749
▁recent	-9.80846
ight	-9.8094
▁Tr	-9.81064
▁Smith	-9.81173
▁creepy	-9.81173
▁fashion	-9.81173
▁mouth	-9.81173
▁romance	-9.81173
▁attitude	-9.81174
▁visit	-9.81174
▁expectations	-9.81175
▁information	-9.81178
▁connection	-9.81202
▁disturbing	-9.81204
▁Film	-9.81222
▁promise	-9.81242
▁trailer	-9.81279
▁intelligent	-9.81315
▁suddenly	-9.81347
▁Lu	-9.81367
▁dramatic	-9.81394
▁emotion	-9.81527
▁million	-9.81546
▁zombie	-9.81618
▁student	-9.81621
▁remain	-9.81629
▁week	-9.81651
▁Du	-9.81777
▁asked	-9.81946
▁casting	-9.82
▁Li	-9.82047
▁sexy	-9.82133
▁pain	-9.82271
ette	-9.82365
▁supposedly	-9.82645
▁exception	-9.8265
cal	-9.82775
▁skin	-9.82847
ties	-9.82892
ail	-9.8312
▁Se	-9.83671
▁lacking	-9.83687
▁miss	-9.83762
budget	-9.83806
▁carry	-9.83825
ank	-9.83826
▁o	-9.83937
▁destroy	-9.83971
▁meaning	-9.84007
▁utter	-9.84047
▁convincing	-9.84057
▁success	-9.84212
Don	-9.84237
▁Pa	-9.84346
▁Lynch	-9.84399
▁World	-9.84399
▁brief	-9.84399
▁angry	-9.844
▁humour	-9.844
▁mask	-9.84404
▁dying	-9.84408
▁tough	-9.8441
▁amateurish	-9.84412
▁popular	-9.84432
▁mad	-9.84435
▁mid	-9.84439
▁pretentious	-9.84449
▁bottom	-9.84469
▁city	-9.84481
▁loud	-9.84514
▁somewhere	-9.84522
▁Every	-9.84575
▁victims	-9.84578
▁round	-9.84598
▁Steven	-9.84702
▁sn	-9.85018
▁Movie	-9.8505
tra	-9.85083
▁heck	-9.85122
bo	-9.85282
▁leader	-9.85396
▁longer	-9.8542
com	-9.85462
ise	-9.85495
▁Ben	-9.85585
▁talented	-9.85735
▁worked	-9.85742
▁shop	-9.85758
▁following	-9.85916
▁flicks	-9.86287
tion	-9.86525
▁begins	-9.86533
He	-9.86543
▁fat	-9.86672
▁business	-9.86984
ring	-9.8709
`	-9.87129
▁19	-9.87173
▁eat	-9.87176
right	-9.87413
ized	-9.87501
ue	-9.87503
▁date	-9.87588
▁clue	-9.87698
▁lose	-9.87714
▁mark	-9.87723
+	-9.87732
	-9.87733
▁Because	-9.87733
▁fault	-9.87733
▁process	-9.87733
▁cash	-9.87733
▁hurt	-9.87736
▁Mexican	-9.87736
▁sake	-9.87748
▁science	-9.87754
▁step	-9.87756
▁cold	-9.87756
▁fantasy	-9.87784
▁bland	-9.87794
▁nonsense	-9.87804
▁language	-9.87825
▁professional	-9.8787
▁Night	-9.87901
▁rape	-9.87948
unt	-9.87959
▁sell	-9.87963
▁scenery	-9.87969
▁board	-9.88037
▁honestly	-9.88206
▁doctor	-9.88319
▁missed	-9.88325
▁location	-9.88379
▁detail	-9.88395
▁Did	-9.88636
▁Day	-9.88673
▁ch	-9.88776
▁pi	-9.89038
▁makers	-9.89048
ney	-9.89275
▁pieces	-9.89497
iz	-9.89625
ver	-9.89677
AR	-9.89682
ack	-9.89849
ating	-9.89892
▁Y	-9.90221
va	-9.9029
OR	-9.9035
what	-9.90388
▁allow	-9.9039
▁Z	-9.90504
_	-9.90573
director	-9.90587
Well	-9.90666
ame	-9.90935
▁monsters	-9.9094
▁Space	-9.90943
▁program	-9.91063
▁Sam	-9.9108
▁club	-9.91181
▁exciting	-9.91181
▁Oscar	-9.91181
▁suspect	-9.91183
▁force	-9.91184
▁thin	-9.91195
▁Bill	-9.91196
▁cave	-9.91202
▁unfunny	-9.91202
▁grace	-9.9121
▁join	-9.91222
▁Bruce	-9.91255
▁Dracula	-9.91255
▁Jane	-9.91275
▁flow	-9.91278
▁Guy	-9.91284
▁brutal	-9.91287
▁soft	-9.9129
All	-9.91353
▁Any	-9.91373
▁race	-9.91398
ka	-9.91436
how	-9.91473
▁outside	-9.91509
▁More	-9.91539
LY	-9.916
▁allowed	-9.91644
▁pop	-9.91704
▁seconds	-9.91724
ball	-9.91864
▁bird	-9.91903
▁ball	-9.91998
▁vi	-9.92078
▁Ro	-9.92111
▁cost	-9.92126
▁inter	-9.92314
▁Love	-9.92358
▁names	-9.92381
ep	-9.92385
▁alive	-9.92396
▁teenagers	-9.9243
ric	-9.92478
use	-9.92585
▁YOU	-9.92613
▁mo	-9.92642
ming	-9.92672
rap	-9.92908
che	-9.93023
ina	-9.93232
▁driv	-9.93293
ff	-9.93572
▁80'	-9.93593
▁design	-9.93857
ile	-9.93898
ti	-9.94024
▁w	-9.94166
house	-9.94172
Now	-9.94187
▁truck	-9.9423
▁students	-9.94242
ions	-9.94431
▁ran	-9.9456
▁depict	-9.947
ec	-9.94717
▁Can	-9.94731
▁desperate	-9.94752
▁genuine	-9.94752
▁narrative	-9.94752
▁chemistry	-9.94753
▁literally	-9.94754
▁stock	-9.94764
▁pair	-9.94764
▁jail	-9.94765
▁insane	-9.94771
▁season	-9.94772
▁boat	-9.94773
▁uninteresting	-9.94787
▁Take	-9.94791
▁photography	-9.94808
▁ultimately	-9.94823
▁mystery	-9.9483
▁African	-9.94835
▁era	-9.94862
▁edited	-9.94895
▁disgusting	-9.949
▁spot	-9.94919
▁Martin	-9.94954
▁Jones	-9.94957
▁mission	-9.94977
ong	-9.95033
▁focus	-9.95051
▁treated	-9.95077
▁portrayed	-9.95088
▁utterly	-9.95145
▁Mi	-9.95197
ony	-9.95208
▁accident	-9.9541
▁eating	-9.95434
eep	-9.95492
▁singing	-9.95566
▁appeared	-9.95651
▁dream	-9.95702
▁animal	-9.95708
6	-9.95733
nce	-9.95756
▁keeps	-9.95832
ze	-9.95858
▁nucle	-9.95979
bit	-9.96096
ship	-9.96117
▁revolve	-9.96412
No	-9.96809
men	-9.9701
▁Ch	-9.97146
▁laughed	-9.97419
▁logic	-9.97456
▁news	-9.97472
idden	-9.97748
ize	-9.97757
▁bits	-9.97759
▁Chris	-9.97806
▁record	-9.97823
American	-9.97862
▁charm	-9.97895
▁listen	-9.9798
▁develop	-9.97984
▁junk	-9.98006
One	-9.98068
▁apparent	-9.98107
▁absolute	-9.98108
▁pan	-9.98215
ors	-9.98223
▁product	-9.98408
▁host	-9.98444
▁author	-9.98451
▁accurate	-9.98456
▁regular	-9.98456
▁contrived	-9.98456
▁promising	-9.98456
▁society	-9.98456
▁boyfriend	-9.98456
▁heavy	-9.98456
▁Power	-9.98456
▁content	-9.98456
▁presence	-9.98456
▁asleep	-9.98457
▁difference	-9.98457
▁imagination	-9.98457
▁tension	-9.98459
▁blind	-9.9846
▁office	-9.98484
▁studio	-9.98485
▁dad	-9.98488
▁cinematic	-9.98497
▁thus	-9.98497
▁reach	-9.98511
▁Disney	-9.98514
▁street	-9.98518
▁station	-9.98518
▁eventually	-9.98529
▁frame	-9.98532
▁machine	-9.98536
▁Other	-9.98553
▁Black	-9.98559
▁Despi	-9.9856
au	-9.98577
evin	-9.98594
star	-9.98681
▁moral	-9.98689
eg	-9.98835
▁clichéd	-9.98869
EN	-9.98872
▁moves	-9.99048
▁intended	-9.99176
▁area	-9.99239
▁blame	-9.99324
▁led	-9.99453
▁track	-9.99456
▁adult	-9.99505
▁bo	-9.99514
▁situations	-9.99633
rated	-9.99718
ac	-9.99783
▁values	-9.99955
her	-10.0002
▁ready	-10.0007
▁images	-10.0045
over	-10.0046
they	-10.0048
▁dude	-10.0103
▁sea	-10.0107
▁magic	-10.0109
istic	-10.0111
ping	-10.014
lly	-10.0148
low	-10.0159
X	-10.0167
▁hang	-10.017
making	-10.0175
▁deserves	-10.0188
▁Kill	-10.0193
▁loose	-10.0194
▁involve	-10.0198
▁survive	-10.0213
▁Angel	-10.0218
AN	-10.0229
▁Lewis	-10.023
▁London	-10.023
▁Queen	-10.023
▁approach	-10.023
▁awkward	-10.023
▁convince	-10.023
▁mysterious	-10.023
▁suicide	-10.023
▁tedious	-10.023
▁zero	-10.023
▁indeed	-10.023
▁search	-10.023
▁Danny	-10.0231
▁enter	-10.0231
▁load	-10.0232
▁appearance	-10.0232
▁length	-10.0236
▁13	-10.0236
▁effective	-10.0237
▁opportunity	-10.0237
▁Charlie	-10.0237
▁anywhere	-10.0238
▁Hell	-10.0238
▁afraid	-10.0243
lock	-10.0244
▁pretend	-10.0245
▁Please	-10.0245
▁army	-10.0247
▁laughter	-10.025
▁phone	-10.025
▁advice	-10.0251
▁greatest	-10.0263
▁drugs	-10.0268
ung	-10.0274
▁recently	-10.0274
ock	-10.0278
▁endless	-10.028
ning	-10.032
▁seat	-10.0328
▁murdered	-10.0333
▁include	-10.0347
▁blow	-10.0348
▁ghost	-10.0349
▁:	-10.0355
▁lu	-10.036
▁teen	-10.0379
▁ti	-10.0379
ham	-10.0381
▁lighting	-10.0389
▁ski	-10.0392
▁Ba	-10.0438
▁judge	-10.044
ities	-10.0459
ler	-10.0465
work	-10.0473
we	-10.0489
atur	-10.0494
▁bear	-10.0499
▁40	-10.0502
▁en	-10.0506
ute	-10.0513
▁featur	-10.0537
▁roll	-10.0565
▁drink	-10.0567
▁100	-10.0571
Some	-10.0572
Oh	-10.0582
looking	-10.0585
starring	-10.0593
▁natural	-10.0594
▁boo	-10.0598
▁clichés	-10.0621
▁favor	-10.063
▁horribly	-10.063
▁intelligence	-10.063
▁likable	-10.063
▁nobody	-10.063
▁serial	-10.063
▁complex	-10.063
▁dreadful	-10.063
▁government	-10.063
▁Girl	-10.063
▁tape	-10.063
▁naked	-10.063
▁push	-10.063
▁relative	-10.0631
lie	-10.0632
▁Paris	-10.0632
▁bank	-10.0633
▁Kane	-10.0634
▁Howard	-10.0634
▁personality	-10.0634
▁Out	-10.0636
▁Good	-10.0636
▁screenwriter	-10.0637
▁culture	-10.0638
▁unlike	-10.0639
▁Moon	-10.0641
▁People	-10.0641
▁familiar	-10.0643
▁sight	-10.0644
▁stinker	-10.0645
▁correct	-10.0646
uck	-10.0647
▁letter	-10.0648
▁Jr	-10.0649
▁rental	-10.0652
ey	-10.0652
▁band	-10.0656
▁ability	-10.0659
▁red	-10.066
▁below	-10.0674
▁suck	-10.0686
▁generally	-10.0686
▁`	-10.0703
▁rid	-10.0704
ery	-10.0706
▁return	-10.0712
ving	-10.0732
▁whom	-10.0746
▁criminal	-10.0764
▁contain	-10.0768
▁producer	-10.079
fully	-10.0803
▁Mc	-10.0803
mm	-10.0826
▁Bob	-10.0828
con	-10.0871
▁helped	-10.0881
▁su	-10.0891
▁acts	-10.0894
▁skip	-10.0903
fa	-10.0904
gi	-10.0915
▁details	-10.0964
▁j	-10.0967
▁Blood	-10.0972
pi	-10.0974
▁steal	-10.0983
▁remains	-10.0986
Overall	-10.0986
year	-10.0988
back	-10.0991
good	-10.0999
▁reveal	-10.1001
core	-10.1011
▁("	-10.1017
▁Con	-10.1021
▁drunk	-10.1043
▁chick	-10.1045
▁commit	-10.1045
▁everybody	-10.1047
▁evidence	-10.1047
▁technical	-10.1047
▁thousand	-10.1047
▁clean	-10.1047
▁innocent	-10.1047
▁awesome	-10.1047
▁network	-10.1047
▁bodies	-10.1047
▁mountain	-10.1047
▁available	-10.1047
▁curious	-10.1047
▁1950	-10.1047
▁failure	-10.1048
▁stuck	-10.1048
▁six	-10.1049
▁fame	-10.1049
▁reaction	-10.1051
▁impressive	-10.1054
▁Russian	-10.1055
▁boss	-10.1056
▁Miss	-10.1057
TV	-10.1058
▁master	-10.1065
▁Never	-10.1065
▁unintentionally	-10.1066
▁Very	-10.1068
our	-10.1072
▁driver	-10.1093
ound	-10.1094
▁screaming	-10.1099
▁noticed	-10.1101
▁Chan	-10.1101
▁wise	-10.1106
▁Time	-10.1106
see	-10.111
▁X	-10.1113
▁soul	-10.1121
end	-10.1134
▁10.	-10.1134
▁willing	-10.1141
fest	-10.1147
▁cameo	-10.1152
▁planet	-10.1174
▁scare	-10.118
▁weapons	-10.1186
bout	-10.1195
▁directors	-10.1223
pp	-10.1225
▁fi	-10.1252
ince	-10.1261
▁hat	-10.1273
▁adventure	-10.1301
▁Ann	-10.1303
ward	-10.1311
ory	-10.132
OL	-10.1321
▁gra	-10.1339
??	-10.1352
▁Sh	-10.1352
▁Ri	-10.1354
dom	-10.1362
▁Red	-10.1364
▁met	-10.1372
▁adds	-10.1373
▁fe	-10.1393
Do	-10.1394
▁hunt	-10.1408
screen	-10.1422
film	-10.1422
▁sympath	-10.1432
▁fool	-10.1434
▁Mad	-10.1442
▁historical	-10.1445
made	-10.1447
fer	-10.1454
▁Ne	-10.146
▁Rock	-10.1461
▁cry	-10.1466
▁Ber	-10.1478
▁gold	-10.1479
▁Hav	-10.148
▁President	-10.1482
▁lesbian	-10.1482
▁addition	-10.1482
▁refuse	-10.1482
▁Two	-10.1482
▁jerk	-10.1482
▁discuss	-10.1482
▁AND	-10.1482
▁wander	-10.1482
▁consist	-10.1482
▁window	-10.1482
▁green	-10.1482
▁switch	-10.1482
▁caught	-10.1483
▁edge	-10.1483
▁4/10	-10.1483
▁assume	-10.1483
▁excited	-10.1484
▁mock	-10.1485
Next	-10.1485
▁dare	-10.1485
▁Horror	-10.1486
▁grand	-10.1486
▁Ryan	-10.1488
▁masterpiece	-10.1489
▁broken	-10.1492
▁Show	-10.1492
▁Paul	-10.1493
▁road	-10.1494
▁Wow	-10.1495
▁limited	-10.1497
▁loser	-10.1498
ept	-10.15
▁Still	-10.1506
▁teacher	-10.1508
▁field	-10.151
ible	-10.1514
▁Matt	-10.1517
▁Park	-10.1524
***	-10.1529
▁Anyway	-10.1532
▁knowing	-10.1542
▁hopes	-10.1546
▁aim	-10.1547
cent	-10.1553
ual	-10.1554
▁bloody	-10.1566
▁shocking	-10.157
An	-10.1574
▁explained	-10.1586
......	-10.1588
ought	-10.159
rk	-10.1609
ED	-10.1614
▁forever	-10.1628
▁followed	-10.1633
bs	-10.164
ew	-10.1644
▁rated	-10.1648
▁member	-10.167
▁v	-10.1671
▁farm	-10.1688
though	-10.1692
▁Dan	-10.1693
▁Po	-10.1703
▁fights	-10.1704
▁flaws	-10.1705
▁brothers	-10.1711
▁aspects	-10.1717
▁issues	-10.1743
▁Sp	-10.1756
grade	-10.1761
▁ru	-10.1797
▁prefer	-10.1798
▁tone	-10.1801
ied	-10.1809
▁cops	-10.1823
▁dies	-10.1836
▁sum	-10.1846
ip	-10.185
▁sta	-10.1861
▁zombies	-10.1873
▁Sci	-10.1883
gging	-10.1884
▁aside	-10.1886
▁disappear	-10.1891
▁whi	-10.1896
night	-10.19
▁faces	-10.1917
▁pen	-10.1919
▁arts	-10.192
▁teenage	-10.193
▁Saudi	-10.1936
▁central	-10.1936
▁encounter	-10.1936
▁energy	-10.1936
▁franchise	-10.1936
▁irritating	-10.1936
▁married	-10.1936
▁regret	-10.1936
▁vehicle	-10.1936
▁beauty	-10.1936
▁rival	-10.1936
▁pilot	-10.1936
▁Norris	-10.1936
▁double	-10.1936
▁memory	-10.1936
▁negative	-10.1936
▁current	-10.1936
▁center	-10.1936
▁therefore	-10.1936
▁alright	-10.1937
▁service	-10.1937
▁terrific	-10.1937
▁continuity	-10.1937
▁Robin	-10.1938
▁unique	-10.1938
▁statement	-10.1939
▁minor	-10.194
▁Jackson	-10.194
▁Actually	-10.1941
▁Catherine	-10.1941
▁bright	-10.1941
▁impact	-10.1942
▁artistic	-10.1943
▁genius	-10.1943
bad	-10.1948
▁plus	-10.1949
▁officer	-10.1949
▁Director	-10.1952
▁Yeah	-10.1952
▁yeah	-10.1952
▁Was	-10.1954
▁freak	-10.1954
▁45	-10.1955
▁****	-10.1962
▁Does	-10.1963
▁Dark	-10.1964
▁City	-10.1965
▁originality	-10.1966
▁ON	-10.1975
▁actresses	-10.1977
▁Ni	-10.1977
▁developed	-10.1993
wood	-10.2003
▁II	-10.2003
▁finished	-10.2004
▁personally	-10.2004
▁telling	-10.2009
ale	-10.2011
▁lock	-10.2011
▁beach	-10.2015
▁gl	-10.2017
▁higher	-10.2027
▁May	-10.2037
▁presented	-10.2038
▁seeming	-10.204
▁stereotypes	-10.2049
▁according	-10.2051
ST	-10.2059
▁lived	-10.2063
▁bothered	-10.207
oth	-10.2071
▁warm	-10.208
▁terms	-10.2089
ped	-10.2095
▁pet	-10.2097
▁unrealistic	-10.2113
▁hated	-10.2113
▁paint	-10.2114
▁li	-10.2115
▁Mel	-10.2118
▁issue	-10.2143
▁standard	-10.215
▁Ar	-10.2153
▁Ho	-10.2157
▁award	-10.2166
vo	-10.2168
▁Sa	-10.2169
▁artist	-10.2182
▁ill	-10.2184
▁gr	-10.2184
void	-10.22
cul	-10.222
▁likely	-10.2242
▁contains	-10.2251
▁ba	-10.2278
ide	-10.2283
▁feelings	-10.2313
action	-10.2324
▁Bar	-10.2342
plot	-10.2352
Where	-10.2352
style	-10.2353
Why	-10.2354
played	-10.2357
ress	-10.2363
▁spin	-10.2369
▁Tim	-10.2376
▁grat	-10.2387
▁fift	-10.2393
▁bore	-10.2397
▁punch	-10.2406
cing	-10.2409
ction	-10.241
terribly	-10.2412
▁Texas	-10.2412
▁Wayne	-10.2412
▁cheese	-10.2412
▁comparison	-10.2412
▁dancing	-10.2412
▁embarrassed	-10.2412
▁motivation	-10.2412
▁necessary	-10.2412
▁teeth	-10.2412
▁unnecessary	-10.2412
▁Fox	-10.2412
▁device	-10.2412
▁Zoey	-10.2412
▁root	-10.2413
▁football	-10.2413
▁somebody	-10.2413
▁Adam	-10.2413
▁Moses	-10.2413
▁responsible	-10.2413
▁Devil	-10.2414
▁screw	-10.2414
▁witty	-10.2414
▁rise	-10.2414
▁Barry	-10.2414
▁60	-10.2415
▁Yet	-10.2415
▁coach	-10.2416
▁slapstick	-10.2417
▁graphic	-10.2418
▁Halloween	-10.242
▁anymore	-10.2421
▁goofy	-10.2422
▁Okay	-10.2423
▁choose	-10.2423
▁DO	-10.2425
▁Lone	-10.2426
▁social	-10.2428
▁owner	-10.243
dead	-10.2432
▁Get	-10.2434
▁mildly	-10.2435
▁becoming	-10.2436
▁sent	-10.2441
▁damn	-10.2443
▁wide	-10.2452
ried	-10.2453
▁law	-10.246
ax	-10.2467
▁soap	-10.2471
▁designed	-10.2475
▁destroyed	-10.2481
▁scared	-10.2482
▁bull	-10.2496
▁provided	-10.2497
ging	-10.2504
▁murderer	-10.2505
ries	-10.2507
▁portray	-10.2509
ink	-10.2511
▁note	-10.2516
▁poster	-10.2533
▁inept	-10.2535
▁Stan	-10.254
▁sequels	-10.2547
▁Vi	-10.2568
▁ahead	-10.2573
▁critics	-10.2575
▁ruin	-10.259
▁slowly	-10.2595
▁renting	-10.26
▁claim	-10.2608
uring	-10.2608
RA	-10.261
▁?	-10.2622
▁worthy	-10.2624
▁element	-10.2636
ean	-10.2638
▁asks	-10.2643
▁rescue	-10.2646
▁k	-10.2649
▁tr	-10.2655
▁heads	-10.2664
▁spirit	-10.268
az	-10.2686
▁Americans	-10.2692
▁standards	-10.27
?).	-10.2703
▁1.	-10.273
%	-10.2741
!).	-10.276
▁guns	-10.2765
▁Ka	-10.2766
▁adults	-10.2772
▁understanding	-10.2777
ical	-10.2787
▁imp	-10.2791
▁tw	-10.2796
▁costs	-10.28
▁Come	-10.2807
▁Cat	-10.281
▁im	-10.2821
di	-10.2831
▁scream	-10.2851
life	-10.2853
Whi	-10.2855
▁treat	-10.2865
▁concern	-10.2866
▁Har	-10.2867
▁extras	-10.2871
▁quick	-10.2878
▁base	-10.2894
▁stink	-10.2895
read	-10.2898
▁fiction	-10.2904
#	-10.2909
▁amateur	-10.291
▁represent	-10.2911
▁object	-10.2911
▁drop	-10.2911
▁Hitchcock	-10.2912
▁Little	-10.2912
▁Nicole	-10.2912
▁abysmal	-10.2912
▁disbelief	-10.2912
▁hundred	-10.2912
▁individual	-10.2912
▁knock	-10.2912
▁revenge	-10.2912
▁crowd	-10.2912
▁priest	-10.2912
▁ALL	-10.2912
▁paper	-10.2912
▁surround	-10.2912
▁wild	-10.2912
▁hospital	-10.2912
▁native	-10.2912
▁vague	-10.2913
▁instance	-10.2913
▁Jerry	-10.2913
▁opposite	-10.2913
▁legend	-10.2913
▁decade	-10.2913
▁Roger	-10.2913
▁surface	-10.2913
▁massive	-10.2914
▁fellow	-10.2914
▁3/10	-10.2914
▁attractive	-10.2914
▁stereotypical	-10.2914
▁hint	-10.2914
▁crack	-10.2915
▁Brian	-10.2915
▁expert	-10.2915
▁halfway	-10.2917
▁plastic	-10.2917
▁Larry	-10.2918
▁Bible	-10.292
▁Though	-10.2924
uous	-10.293
▁Am	-10.293
let	-10.2931
▁Rick	-10.2931
▁introduced	-10.2934
▁powerful	-10.2936
▁lesson	-10.2938
▁sympathy	-10.2939
▁bigger	-10.2941
▁Rand	-10.2946
ump	-10.2946
car	-10.2947
▁key	-10.2948
▁Fr	-10.2952
▁forgotten	-10.2963
▁Ca	-10.2972
▁campy	-10.2976
▁Overall	-10.2986
▁ratings	-10.2996
▁beside	-10.2996
▁offend	-10.3001
▁showed	-10.3014
har	-10.3044
▁fail	-10.3052
▁na	-10.3063
▁Hard	-10.3065
);	-10.3082
▁ice	-10.3093
▁saved	-10.3096
▁TO	-10.3101
don	-10.3107
▁separate	-10.3116
▁older	-10.3121
▁kick	-10.3125
▁van	-10.3132
ON	-10.3135
▁sin	-10.3141
▁idiot	-10.3151
▁pe	-10.3156
▁commercial	-10.3157
▁image	-10.316
igh	-10.3161
▁op	-10.3167
▁hire	-10.3173
▁filmmaker	-10.3192
▁Dian	-10.3206
are	-10.3218
▁hey	-10.3227
▁Uni	-10.3231
**	-10.3251
▁aspect	-10.329
▁Pre	-10.3298
▁carrie	-10.3299
where	-10.3342
▁Roberts	-10.3345
▁intention	-10.3353
▁emotions	-10.3363
▁Will	-10.3365
!!!!	-10.3365
Z	-10.3376
while	-10.3377
Anyway	-10.3378
That	-10.338
However	-10.338
comedy	-10.338
▁accept	-10.3389
pro	-10.339
▁min	-10.3408
▁luck	-10.3417
there	-10.3434
▁formula	-10.3435
▁exploit	-10.3437
pecial	-10.3437
▁hide	-10.3438
▁occur	-10.3438
▁Thomas	-10.3439
▁empty	-10.3439
▁generous	-10.3439
▁influence	-10.3439
▁psycho	-10.3439
▁qualities	-10.3439
▁research	-10.3439
▁silent	-10.3439
▁succeed	-10.3439
▁twenty	-10.3439
▁uninspired	-10.3439
▁virtual	-10.3439
▁sweet	-10.3439
▁affair	-10.3439
▁numero	-10.3439
▁born	-10.3439
▁unconvincing	-10.3439
▁Barney	-10.3439
▁tree	-10.344
▁merit	-10.344
▁Ranger	-10.344
▁trick	-10.344
▁Mike	-10.3441
▁shut	-10.3441
att	-10.3443
▁attract	-10.3444
▁hack	-10.3444
▁conflict	-10.3444
▁dirty	-10.3447
▁em	-10.3448
▁USA	-10.3449
▁compelling	-10.3451
▁chosen	-10.3451
▁SPOILERS	-10.3454
▁impressed	-10.3455
▁Really	-10.3455
▁lovely	-10.346
▁passion	-10.3463
▁useless	-10.3468
▁Look	-10.3468
▁warned	-10.3469
▁trust	-10.3473
▁Sadly	-10.3476
▁gory	-10.3477
▁wit	-10.3481
▁concerned	-10.3487
▁incredible	-10.3489
▁Part	-10.3495
▁revealed	-10.3497
▁ob	-10.3503
▁justice	-10.3505
▁Avoid	-10.3505
▁Mac	-10.3512
▁Cor	-10.3518
▁cons	-10.3518
▁shower	-10.3528
▁Satan	-10.3533
▁_	-10.3533
▁Fa	-10.3533
mate	-10.3534
▁praise	-10.3546
▁skills	-10.357
zy	-10.357
ja	-10.3571
▁du	-10.3579
▁ver	-10.3581
izing	-10.3587
AL	-10.3589
ain	-10.3591
▁grade	-10.3594
50	-10.3596
▁thanks	-10.3615
ich	-10.3631
▁buying	-10.3636
▁flaw	-10.3671
ita	-10.3674
▁arm	-10.3677
hoo	-10.3677
▁tend	-10.3691
▁u	-10.3704
▁protagonist	-10.3707
▁subplot	-10.3708
00	-10.3713
▁par	-10.3715
▁bag	-10.3717
▁calls	-10.372
▁Ta	-10.3733
▁Bu	-10.3734
▁recommended	-10.3736
▁Wi	-10.3744
gotten	-10.3751
▁cla	-10.3756
▁Williams	-10.378
▁Dar	-10.3782
iness	-10.3789
▁protect	-10.3798
Fi	-10.3809
▁2.	-10.3814
▁believed	-10.3819
rate	-10.3828
▁animals	-10.3855
set	-10.3881
▁locations	-10.3887
They	-10.3891
▁Big	-10.3895
port	-10.3897
tain	-10.3903
face	-10.3907
very	-10.3916
é	-10.3919
▁crash	-10.3924
dimensional	-10.3932
▁cares	-10.395
real	-10.3954
vin	-10.3958
▁surprising	-10.3959
den	-10.3959
▁abuse	-10.3962
▁capture	-10.3963
gar	-10.3976
▁loves	-10.3977
▁Evan	-10.3978
away	-10.398
Un	-10.3981
▁relate	-10.3987
▁youth	-10.3989
▁breath	-10.3993
▁wanna	-10.3993
▁Ti	-10.3994
▁Bullock	-10.3994
▁THIS	-10.3994
▁Vampire	-10.3994
▁associate	-10.3994
▁atrocious	-10.3994
▁corpse	-10.3994
▁offensive	-10.3994
▁repetitive	-10.3994
▁routine	-10.3994
▁system	-10.3994
▁wreck	-10.3994
▁Cinema	-10.3994
▁task	-10.3994
▁pacing	-10.3994
▁FBI	-10.3994
▁account	-10.3994
▁gross	-10.3994
▁guest	-10.3994
▁nasty	-10.3994
▁comedian	-10.3994
▁superior	-10.3994
▁detective	-10.3995
▁began	-10.3995
▁fresh	-10.3995
▁Stone	-10.3995
▁sentence	-10.3995
▁creative	-10.3996
▁treatment	-10.3996
▁dump	-10.3997
▁tight	-10.3997
▁commentary	-10.3998
▁sitcom	-10.3998
▁amaze	-10.3999
▁1970	-10.3999
▁Gold	-10.3999
▁target	-10.4
▁advise	-10.4
▁highlight	-10.4
▁Dame	-10.4001
▁Na	-10.4001
▁Max	-10.4001
▁thoroughly	-10.4001
▁Jackie	-10.4002
▁hotel	-10.4003
▁generation	-10.4004
▁Karen	-10.4005
▁lift	-10.4007
▁aware	-10.4007
ged	-10.4009
▁corny	-10.401
act	-10.401
▁table	-10.401
▁Angela	-10.4012
▁experiment	-10.4012
▁cable	-10.4015
▁model	-10.4016
▁bin	-10.4017
▁Second	-10.402
▁mom	-10.4024
▁None	-10.4025
▁share	-10.4029
▁foot	-10.4032
▁surprisingly	-10.4035
▁Rod	-10.4045
▁singer	-10.4054
▁Bam	-10.4056
▁Joan	-10.4063
▁Ray	-10.4066
Let	-10.4068
▁hits	-10.4075
▁delivers	-10.4085
ix	-10.4091
existent	-10.4096
ford	-10.4098
▁sleeping	-10.4123
list	-10.4124
ane	-10.4133
▁core	-10.4138
▁dollars	-10.415
long	-10.4155
ky	-10.4156
ire	-10.4163
▁twists	-10.4166
▁audiences	-10.418
▁talks	-10.4197
Ha	-10.4221
▁aliens	-10.4224
▁button	-10.4229
▁Count	-10.4238
ious	-10.4253
▁fantastic	-10.428
▁para	-10.428
▁Hu	-10.4282
.....	-10.4287
▁angle	-10.4302
▁IT	-10.4317
▁Cha	-10.4331
▁meeting	-10.4334
lon	-10.4363
▁Boy	-10.4372
▁Je	-10.4375
under	-10.4381
liners	-10.4383
hip	-10.4401
▁player	-10.4409
▁themes	-10.4422
aving	-10.446
tribute	-10.4465
▁chi	-10.4471
oh	-10.4472
▁seek	-10.4475
she	-10.4479
rapped	-10.4481
▁See	-10.4504
roll	-10.4505
▁Hal	-10.4514
▁complain	-10.4517
Maybe	-10.4523
especially	-10.4523
Jack	-10.4524
fight	-10.4529
On	-10.4532
run	-10.4533
boy	-10.4535
▁command	-10.4555
▁rap	-10.4565
▁compare	-10.4567
miss	-10.4573
type	-10.4574
▁actions	-10.4576
▁predict	-10.4578
▁Qui	-10.4582
▁Arnold	-10.4583
▁Murphy	-10.4583
▁Solomon	-10.4583
▁Taylor	-10.4583
▁Wagner	-10.4583
▁Women	-10.4583
▁assistant	-10.4583
▁cheerlead	-10.4583
▁gruesome	-10.4583
▁horrid	-10.4583
▁martial	-10.4583
▁poverty	-10.4583
▁print	-10.4583
▁Brown	-10.4583
▁belief	-10.4583
▁Western	-10.4583
▁funnier	-10.4583
▁Helsing	-10.4583
▁egg	-10.4583
▁incident	-10.4583
▁source	-10.4583
▁Captain	-10.4583
▁General	-10.4583
▁parody	-10.4583
▁solid	-10.4583
▁splatter	-10.4583
▁Ninja	-10.4583
▁quote	-10.4583
▁prostitute	-10.4583
▁morning	-10.4583
▁flesh	-10.4583
▁1960	-10.4583
▁THAT	-10.4583
▁borrow	-10.4583
▁blah	-10.4584
▁replace	-10.4584
▁Tommy	-10.4584
▁Edward	-10.4584
▁propaganda	-10.4585
▁existence	-10.4586
▁fix	-10.4586
▁relief	-10.4586
▁Everyone	-10.4586
▁theatre	-10.4586
▁jo	-10.4586
▁idiotic	-10.4587
▁essentially	-10.4588
▁UK	-10.4588
▁Noah	-10.4589
▁safe	-10.459
▁Sound	-10.4593
atch	-10.4593
▁lies	-10.4595
▁pile	-10.4596
▁tank	-10.4597
▁independent	-10.4597
▁gather	-10.4599
▁Poor	-10.46
▁smile	-10.46
▁loss	-10.4601
▁Dien	-10.4602
▁Boll	-10.4604
▁reporter	-10.4605
▁drawn	-10.4605
▁mindless	-10.4606
oy	-10.4607
▁rank	-10.4611
▁rushed	-10.4612
▁captured	-10.4616
▁stupidity	-10.4619
▁recall	-10.4622
▁Sheen	-10.4625
▁Bay	-10.463
▁mile	-10.4633
▁flying	-10.4634
air	-10.4637
▁earn	-10.4638
▁ruined	-10.4639
▁Fred	-10.4644
▁cringe	-10.4647
bar	-10.4655
ou	-10.4656
▁crying	-10.4669
▁Pu	-10.4675
▁rolling	-10.4677
▁Mu	-10.4684
▁previously	-10.4688
▁realized	-10.4691
▁El	-10.4712
▁ne	-10.4721
▁solve	-10.4722
ven	-10.4727
live	-10.4735
cra	-10.4736
▁def	-10.4738
tended	-10.4738
▁raise	-10.4747
▁suffers	-10.4768
▁blo	-10.4774
▁Fe	-10.4775
▁leg	-10.4777
▁puppets	-10.4784
filled	-10.4784
ative	-10.4801
▁references	-10.4801
▁cur	-10.4809
▁card	-10.4817
Then	-10.4829
lf	-10.4833
▁site	-10.4852
▁numbers	-10.4855
▁scripted	-10.486
▁talents	-10.4867
▁caus	-10.487
▁angles	-10.4872
RE	-10.4877
▁players	-10.4903
▁commercials	-10.4908
lia	-10.4914
▁expression	-10.4924
▁costume	-10.4931
▁soldier	-10.496
▁le	-10.4987
▁dec	-10.4995
ple	-10.4998
ular	-10.5001
▁Men	-10.5013
head	-10.5015
▁ya	-10.5031
tri	-10.5069
ET	-10.5072
▁sole	-10.5095
▁repeat	-10.5096
▁burn	-10.5098
play	-10.51
▁struggle	-10.5101
▁Sha	-10.5102
▁weeks	-10.5124
▁draw	-10.5125
ino	-10.5129
▁den	-10.513
ux	-10.5136
▁vampires	-10.5142
▁scar	-10.5142
First	-10.5148
Also	-10.5148
Just	-10.5148
John	-10.5148
horror	-10.5148
▁rob	-10.5149
watch	-10.5151
Avoid	-10.5155
▁stretch	-10.516
▁Are	-10.516
▁connect	-10.5161
▁wrestl	-10.5168
▁sudden	-10.5172
▁Com	-10.5174
▁exact	-10.5174
▁proper	-10.5177
Yes	-10.5201
entific	-10.5202
row	-10.5203
▁melodrama	-10.5206
▁intriguing	-10.5207
Spoiler	-10.5208
▁Campbell	-10.5208
▁Washington	-10.5208
▁astronaut	-10.5208
▁buddies	-10.5208
▁colour	-10.5208
▁competition	-10.5208
▁depressing	-10.5208
▁exercise	-10.5208
▁helicopter	-10.5208
▁implausible	-10.5208
▁jungle	-10.5208
▁ludicrous	-10.5208
▁newspaper	-10.5208
▁pitiful	-10.5208
▁position	-10.5208
▁religious	-10.5208
▁strength	-10.5208
▁summary	-10.5208
▁unusual	-10.5208
▁variety	-10.5208
▁downhill	-10.5208
▁Again	-10.5208
▁Sandra	-10.5208
▁stiff	-10.5208
▁risk	-10.5208
▁contact	-10.5208
▁Jesse	-10.5208
▁clothing	-10.5208
▁court	-10.5208
▁cruel	-10.5208
▁shark	-10.5208
▁Grade	-10.5208
▁ashamed	-10.5208
▁crude	-10.5208
▁twice	-10.5208
▁Yep	-10.5208
▁forgot	-10.5208
▁Would	-10.5208
▁terrorist	-10.5209
▁fuel	-10.521
▁collection	-10.521
▁stopped	-10.521
▁relie	-10.5211
▁spare	-10.5213
▁Stupid	-10.5214
▁spoof	-10.5214
▁foreign	-10.5214
▁chicken	-10.5214
▁animated	-10.5215
▁stolen	-10.5216
▁demand	-10.5218
▁intellectual	-10.5218
▁Tony	-10.5219
▁guilty	-10.522
▁prepared	-10.5221
▁latter	-10.5222
▁test	-10.5224
▁danger	-10.5224
▁Friday	-10.5225
▁grave	-10.5226
▁pity	-10.5229
▁manner	-10.5231
▁upset	-10.5234
▁drags	-10.5234
▁PG	-10.5234
▁Sorry	-10.5235
▁receive	-10.5238
▁worthless	-10.5239
▁heroes	-10.5252
▁warning	-10.5253
▁joy	-10.5258
▁emotionally	-10.5285
nch	-10.5297
▁anger	-10.5303
▁Brooks	-10.5308
▁bu	-10.531
▁focused	-10.5319
more	-10.5321
▁ja	-10.5327
other	-10.5328
▁Jenn	-10.5329
▁comical	-10.535
How	-10.5358
▁sun	-10.5365
▁learned	-10.5365
berg	-10.5373
▁Ste	-10.5389
▁Ru	-10.5409
hin	-10.541
▁cra	-10.5417
▁accents	-10.542
LE	-10.5421
▁flashbacks	-10.5422
ool	-10.5429
▁closed	-10.5433
▁mob	-10.5437
▁strip	-10.5442
▁range	-10.5443
▁Ms	-10.5454
▁speaking	-10.5454
bu	-10.5461
▁arrive	-10.5463
▁dim	-10.5488
▁IN	-10.5492
▁stands	-10.5501
▁tie	-10.5505
▁games	-10.5506
▁Gar	-10.5553
▁fund	-10.5566
▁color	-10.5568
▁bite	-10.5572
▁medic	-10.5576
▁conversation	-10.5588
20	-10.559
hard	-10.5593
▁preci	-10.5607
hand	-10.5628
▁ghosts	-10.5669
▁Ted	-10.5672
▁includes	-10.5691
▁Alex	-10.57
▁focuse	-10.5719
cious	-10.5729
Ba	-10.5729
nyone	-10.5734
▁Gra	-10.5738
down	-10.5764
come	-10.5764
than	-10.5767
called	-10.5771
▁beer	-10.5785
▁3.	-10.5808
▁spoil	-10.581
school	-10.5812
After	-10.5815
board	-10.5815
With	-10.5816
worthy	-10.5818
▁Hunt	-10.5819
▁hook	-10.5821
▁Have	-10.583
law	-10.5832
ook	-10.5837
▁wound	-10.5839
▁mental	-10.5841
▁places	-10.5852
▁speech	-10.5871
▁Cameron	-10.5874
▁Chinese	-10.5874
▁Kennedy	-10.5874
▁Pinhead	-10.5874
▁Sheriff	-10.5874
▁Tanzania	-10.5874
▁Wilson	-10.5874
▁celluloid	-10.5874
▁childhood	-10.5874
▁climb	-10.5874
▁decision	-10.5874
▁determine	-10.5874
▁fascinating	-10.5874
▁generic	-10.5874
▁incoherent	-10.5874
▁miserably	-10.5874
▁puzzle	-10.5874
▁recognize	-10.5874
▁reduce	-10.5874
▁smoke	-10.5874
▁spectacular	-10.5874
▁tragedy	-10.5874
▁village	-10.5874
▁Three	-10.5874
▁Christmas	-10.5874
▁prevent	-10.5874
▁ANY	-10.5874
▁queen	-10.5874
▁dozen	-10.5874
▁Gein	-10.5874
▁miscast	-10.5875
▁excessive	-10.5875
▁shoe	-10.5875
▁dropped	-10.5875
▁harsh	-10.5875
▁satire	-10.5875
▁European	-10.5875
▁understood	-10.5875
▁wake	-10.5875
▁scale	-10.5875
funniest	-10.5875
▁Comedy	-10.5875
▁Hitch	-10.5876
▁bash	-10.5876
▁finger	-10.5876
▁dangerous	-10.5877
▁feet	-10.5877
▁size	-10.5878
cat	-10.5878
▁seven	-10.5878
▁Jean	-10.5878
▁health	-10.5879
▁chest	-10.5879
▁flies	-10.588
▁pleasure	-10.5881
▁Himesh	-10.5881
▁Vincent	-10.5881
▁Bix	-10.5883
▁dry	-10.5883
▁Awful	-10.5885
▁page	-10.5885
▁appropriate	-10.5886
▁vision	-10.5886
▁prisoners	-10.5887
▁Lord	-10.5889
▁dubbed	-10.5889
▁comedic	-10.5889
▁heroine	-10.5891
▁rough	-10.5893
▁Otherwise	-10.5894
▁Read	-10.5894
▁House	-10.5894
kip	-10.5894
▁heroic	-10.5896
▁Seriously	-10.5898
▁cream	-10.5898
▁White	-10.5898
retty	-10.5899
▁Dog	-10.5899
▁critical	-10.59
▁repeatedly	-10.59
▁drivel	-10.5906
▁annoyed	-10.5908
iest	-10.5919
▁suffering	-10.5922
▁farce	-10.5923
▁relationships	-10.5924
▁anybody	-10.5926
▁Sho	-10.5928
▁Thing	-10.593
▁affect	-10.5932
▁Hunter	-10.5935
▁burning	-10.5942
▁creatures	-10.5943
▁cell	-10.5948
▁pian	-10.5958
▁flee	-10.5959
▁bucks	-10.5964
▁Frank	-10.5967
▁curse	-10.5969
▁Had	-10.597
▁suits	-10.5975
▁drinking	-10.5982
▁agreed	-10.5982
▁Gi	-10.5988
▁park	-10.599
▁/	-10.5993
▁Par	-10.5997
▁Tru	-10.6
▁Str	-10.6001
▁delivered	-10.6008
▁Mark	-10.601
▁Many	-10.6012
▁makeup	-10.6014
▁Far	-10.6017
▁Fu	-10.6027
ose	-10.6028
▁Ex	-10.603
▁Bi	-10.6039
▁months	-10.6044
▁offered	-10.6044
hy	-10.6086
▁continues	-10.6089
▁opera	-10.6099
uh	-10.6118
▁pal	-10.6126
▁lower	-10.6128
▁twin	-10.6143
hed	-10.6154
SE	-10.6164
2)	-10.6197
win	-10.6203
▁Mil	-10.6208
▁gal	-10.6209
AD	-10.6214
At	-10.623
▁gas	-10.6239
▁Ken	-10.624
▁Ram	-10.6257
▁ruins	-10.6269
▁ripp	-10.6273
cho	-10.6305
▁Hill	-10.6311
▁Ty	-10.6316
Ho	-10.6328
TE	-10.6331
▁flop	-10.6332
too	-10.6348
▁lur	-10.6381
▁Rid	-10.6388
av	-10.639
▁bl	-10.639
▁pee	-10.6412
▁Per	-10.6413
▁matters	-10.6422
▁creat	-10.6444
▁Liv	-10.648
▁Sea	-10.6483
▁Hey	-10.6511
hal	-10.6512
make	-10.6515
10	-10.6519
view	-10.6525
place	-10.6527
funny	-10.6527
includ	-10.6528
just	-10.6529
mentioned	-10.6529
Unfortunately	-10.6529
▁fo	-10.6538
▁spit	-10.654
▁bill	-10.6541
rnie	-10.6551
▁teach	-10.6556
▁desire	-10.6556
▁hype	-10.6562
▁faith	-10.6562
was	-10.6568
col	-10.6576
▁Vietnam	-10.6576
▁sheer	-10.6581
▁flash	-10.6582
▁Sure	-10.6582
▁Julia	-10.6585
▁chang	-10.6586
▁High	-10.6587
keleton	-10.6587
▁charisma	-10.6587
▁kidnap	-10.6587
▁snow	-10.6588
▁pseudo	-10.6588
▁1980	-10.6588
▁Spanish	-10.6588
▁corrupt	-10.6588
▁enemies	-10.6588
▁equipment	-10.6588
▁silver	-10.6588
▁stomach	-10.6588
▁substance	-10.6588
▁Gordon	-10.6588
▁Jessica	-10.6588
▁MOVIE	-10.6588
▁VHS	-10.6588
▁advance	-10.6588
▁church	-10.6588
▁description	-10.6588
▁dinner	-10.6588
▁disjointed	-10.6588
▁execution	-10.6588
▁favour	-10.6588
▁horrendous	-10.6588
▁horrific	-10.6588
▁subtitles	-10.6588
▁Blade	-10.6588
▁enemy	-10.6588
▁miserable	-10.6588
▁recover	-10.6588
▁price	-10.6588
itizen	-10.6588
▁excruciating	-10.6588
▁menacing	-10.6588
▁Trek	-10.6589
▁forgettable	-10.6589
▁Henry	-10.6589
▁convict	-10.6589
▁environment	-10.6589
▁multiple	-10.6589
▁cowboy	-10.6589
▁tongue	-10.6589
▁Dutch	-10.6589
▁NOTHING	-10.6589
▁menace	-10.6589
▁sword	-10.6589
▁section	-10.6589
▁stunning	-10.6589
▁forgive	-10.6589
▁trial	-10.6589
▁blockbuster	-10.6589
▁lazy	-10.6589
▁degree	-10.6589
▁Coward	-10.659
▁France	-10.659
▁afore	-10.659
▁wealth	-10.6591
▁naive	-10.6591
▁sacrifice	-10.6591
▁meaningful	-10.6591
▁#1	-10.6593
▁Right	-10.6593
▁fade	-10.6594
▁Tarantino	-10.6595
▁Tarzan	-10.6595
▁tasteless	-10.6598
▁Someone	-10.6599
▁Island	-10.66
▁acceptable	-10.66
▁char	-10.6601
▁Family	-10.6604
▁hopeless	-10.6607
▁cow	-10.6609
acting	-10.661
▁possessed	-10.6611
▁Sale	-10.6611
▁23	-10.6614
▁boob	-10.6615
▁express	-10.6616
▁haunted	-10.6618
▁Which	-10.662
ogan	-10.6621
▁mass	-10.6623
▁occasionally	-10.6624
▁Myers	-10.6625
▁properly	-10.663
grown	-10.6632
▁Alien	-10.6632
▁pack	-10.6634
▁semi	-10.6635
▁raised	-10.6636
▁Sex	-10.6638
▁witch	-10.6638
▁investigate	-10.6645
▁reasonable	-10.6646
▁weight	-10.6649
▁/>*	-10.6649
cience	-10.665
▁**	-10.665
▁Germany	-10.6656
▁lay	-10.666
ulp	-10.6664
elve	-10.6673
▁proved	-10.6683
▁portraying	-10.6684
▁Carl	-10.6685
▁11	-10.6693
▁amazingly	-10.6705
losing	-10.6708
fire	-10.6712
▁struggl	-10.6712
▁recording	-10.6714
▁perfectly	-10.6716
▁breasts	-10.6728
ifer	-10.6728
▁meat	-10.6729
▁z	-10.673
▁Give	-10.6739
▁twisted	-10.6751
OK	-10.6764
▁moved	-10.6773
bor	-10.6778
▁Beth	-10.6782
▁throwing	-10.6785
▁fly	-10.6802
▁AT	-10.6814
characterization	-10.6816
▁heist	-10.6818
name	-10.6822
▁Pal	-10.6827
▁dealing	-10.6833
▁Make	-10.6833
ral	-10.6836
▁hearing	-10.6842
teen	-10.6852
Be	-10.6859
▁package	-10.6872
ana	-10.6874
▁standing	-10.6875
▁plant	-10.6885
▁Pol	-10.6886
rch	-10.689
zing	-10.6892
▁Add	-10.6894
ology	-10.6899
▁Nor	-10.6901
movies	-10.6909
▁North	-10.6911
ken	-10.6929
▁translate	-10.6936
▁Gu	-10.6939
▁villains	-10.6946
▁$2	-10.6969
Mad	-10.6973
▁thrill	-10.6974
unk	-10.6975
▁Gl	-10.6984
gged	-10.6993
▁ro	-10.7002
▁Th	-10.7006
arian	-10.7013
▁sw	-10.7018
▁Hol	-10.7066
nia	-10.7071
▁reference	-10.7077
▁teenager	-10.7092
▁criminals	-10.7101
▁capabl	-10.7111
▁blows	-10.7125
IE	-10.7127
▁indicat	-10.714
thy	-10.7153
▁tear	-10.7155
▁attempting	-10.7168
▁dreams	-10.7169
Q	-10.7173
wee	-10.7176
▁se	-10.7199
aked	-10.72
000	-10.7202
till	-10.7212
▁forces	-10.7219
▁Sta	-10.7235
▁Movies	-10.7236
▁entertain	-10.7251
▁porno	-10.7255
1)	-10.7273
▁president	-10.7274
▁bat	-10.728
▁Luc	-10.7293
▁market	-10.7297
when	-10.7299
onic	-10.73
cut	-10.7303
▁Ron	-10.7306
HO	-10.7307
UT	-10.7311
▁physical	-10.732
▁unintentional	-10.7322
▁constant	-10.7323
pped	-10.7325
▁dislike	-10.7331
shot	-10.7331
loved	-10.7331
love	-10.7332
▁bare	-10.7333
▁report	-10.7333
ease	-10.7334
Although	-10.7336
▁broke	-10.734
▁chose	-10.7342
wise	-10.7347
▁tradition	-10.7348
Only	-10.7351
▁Charl	-10.7352
/10	-10.7353
▁Swed	-10.7354
VERY	-10.7355
▁subtle	-10.7356
▁yell	-10.7357
▁photo	-10.7358
▁Japan	-10.7358
▁intent	-10.7358
’	-10.7358
▁Church	-10.7358
▁Festival	-10.7358
▁Patterson	-10.7358
▁Travolta	-10.7358
▁behavior	-10.7358
▁community	-10.7358
▁credibility	-10.7358
▁dunno	-10.7358
▁engaging	-10.7358
▁financial	-10.7358
▁plague	-10.7358
▁restaurant	-10.7358
▁scenario	-10.7358
▁sleazy	-10.7358
▁superficial	-10.7358
▁supernatural	-10.7358
▁technology	-10.7358
▁Arbus	-10.7358
▁built	-10.7358
▁clown	-10.7358
▁cousin	-10.7358
▁floor	-10.7358
▁glasses	-10.7358
▁status	-10.7358
▁epic	-10.7358
▁nude	-10.7358
▁contest	-10.7358
▁extent	-10.7358
▁portion	-10.7358
▁monkey	-10.7358
▁convey	-10.7358
▁lawyer	-10.7358
▁excitement	-10.7358
▁introduction	-10.7358
▁challenge	-10.7358
▁speed	-10.7358
▁Hopper	-10.7358
▁racial	-10.7358
▁installment	-10.7358
▁Kurtz	-10.7358
▁chief	-10.7358
▁Sarah	-10.7359
▁neck	-10.736
▁winning	-10.736
▁Music	-10.736
▁Norman	-10.7361
▁toilet	-10.7361
▁held	-10.7361
▁render	-10.7361
▁Linda	-10.7363
▁MTV	-10.7363
▁abandoned	-10.7363
▁Johnny	-10.7364
▁prime	-10.7364
▁tall	-10.7364
▁reward	-10.7365
▁entry	-10.7365
▁Helen	-10.7365
▁nu	-10.7365
▁Murray	-10.7365
▁buff	-10.7366
▁meaningless	-10.7366
▁executed	-10.7367
▁Carlos	-10.7367
▁movement	-10.7367
▁Heart	-10.7368
▁Fish	-10.7369
▁feminist	-10.7369
▁WW	-10.7369
▁distract	-10.7369
▁Lloyd	-10.737
▁performers	-10.737
▁Ferr	-10.7371
▁pun	-10.7372
▁Jon	-10.7373
▁humanity	-10.7373
▁exploitation	-10.7373
▁humorous	-10.7375
▁superb	-10.7375
hu	-10.7375
▁Oz	-10.7376
▁shape	-10.7377
▁Laura	-10.7378
lar	-10.7379
▁wave	-10.7379
▁media	-10.738
induc	-10.7383
▁programme	-10.7385
▁Probably	-10.7385
▁Sim	-10.7388
▁Eric	-10.739
▁Asian	-10.7393
▁shake	-10.7397
can	-10.7398
▁satisfying	-10.7401
▁End	-10.7402
▁ignored	-10.7407
▁string	-10.7408
▁Gore	-10.7409
late	-10.7411
▁Strange	-10.7412
▁burned	-10.7416
▁lying	-10.7417
Ma	-10.742
hey	-10.7421
▁received	-10.7425
▁dam	-10.7428
▁castle	-10.7451
▁Pat	-10.7454
▁Oliv	-10.7456
▁nail	-10.7457
▁Neil	-10.7464
▁Roy	-10.7466
▁tortured	-10.7475
▁Arm	-10.7481
▁ST	-10.7483
▁previews	-10.7485
▁sales	-10.7492
▁Dur	-10.7492
rig	-10.7509
▁fatal	-10.751
▁inane	-10.7514
▁hole	-10.7515
▁nut	-10.7529
Donald	-10.7542
▁Scene	-10.7546
▁insulting	-10.7551
▁States	-10.7556
▁spoilers	-10.756
▁viewed	-10.7564
▁factor	-10.7568
THE	-10.7572
ium	-10.7582
▁included	-10.7595
▁cliches	-10.7603
▁bath	-10.7604
▁Er	-10.7607
gue	-10.7608
▁prom	-10.7631
▁RE	-10.7657
▁MAN	-10.7673
▁realise	-10.7682
▁Cu	-10.7696
▁handed	-10.7698
nny	-10.7713
UR	-10.7714
ki	-10.7717
▁legs	-10.7722
ummy	-10.7745
nel	-10.7746
▁Boys	-10.7746
▁theaters	-10.7773
▁mum	-10.7786
▁idiots	-10.7794
▁kicks	-10.7795
▁critic	-10.7797
▁wa	-10.78
▁killers	-10.7805
▁unit	-10.7837
▁Stu	-10.7837
90	-10.784
▁boot	-10.7841
▁ear	-10.7841
▁rat	-10.7853
▁Apart	-10.788
3)	-10.7889
itle	-10.7897
▁depend	-10.79
▁scares	-10.7902
▁flashback	-10.791
▁guard	-10.791
▁puppet	-10.791
▁mini	-10.7911
▁weapon	-10.7912
▁term	-10.7917
▁Ga	-10.7932
▁teens	-10.7939
CH	-10.7941
▁va	-10.7942
BO	-10.797
spect	-10.7975
ya	-10.7976
ov	-10.7996
ski	-10.8
▁trans	-10.8005
lick	-10.8028
▁accidental	-10.8035
▁terror	-10.804
▁val	-10.8058
stan	-10.8066
ani	-10.807
Di	-10.8085
story	-10.8094
maker	-10.8109
▁REAL	-10.8112
from	-10.8132
town	-10.8132
Even	-10.8135
▁corn	-10.8136
hose	-10.8136
bound	-10.8137
ability	-10.8142
room	-10.8143
▁chat	-10.8146
▁witness	-10.8149
ility	-10.8149
cer	-10.815
▁produce	-10.8153
▁wo	-10.8155
▁peace	-10.8156
▁confuse	-10.816
▁Ice	-10.8161
▁slight	-10.8161
▁thank	-10.8165
▁rep	-10.8166
▁Africa	-10.8171
pper	-10.8178
hold	-10.818
▁Master	-10.8181
acted	-10.8183
magine	-10.8184
▁nation	-10.8184
▁adapt	-10.8185
▁surprises	-10.8188
▁radio	-10.8191
▁Dragon	-10.8191
▁Shadow	-10.8191
▁neighbor	-10.8191
▁sleaze	-10.8191
▁text	-10.8191
▁theatrical	-10.8191
▁unwatchable	-10.8191
@	-10.8191
climactic	-10.8191
corporate	-10.8191
▁Austen	-10.8191
▁Cahill	-10.8191
▁Carradine	-10.8191
▁Except	-10.8191
▁Flynn	-10.8191
▁Gibson	-10.8191
▁HUGE	-10.8191
▁Mexico	-10.8191
▁Ocean	-10.8191
▁Shakespeare	-10.8191
▁appalling	-10.8191
▁benefit	-10.8191
▁biblical	-10.8191
▁bottle	-10.8191
▁cluck	-10.8191
▁curiosity	-10.8191
▁dreck	-10.8191
▁heavily	-10.8191
▁marriage	-10.8191
▁motorcycle	-10.8191
▁narration	-10.8191
▁ninja	-10.8191
▁scratch	-10.8191
▁snakes	-10.8191
▁throat	-10.8191
▁ticket	-10.8191
▁tragic	-10.8191
▁vomit	-10.8191
▁Sonja	-10.8191
▁Troma	-10.8191
▁frightening	-10.8191
▁spark	-10.8191
▁Jason	-10.8191
▁Segal	-10.8191
▁drill	-10.8191
species	-10.8191
▁BBC	-10.8191
▁border	-10.8191
▁distance	-10.8191
▁Plus	-10.8191
▁Lambert	-10.8191
▁trait	-10.8191
▁summer	-10.8191
▁Jesus	-10.8191
▁Christophe	-10.8191
▁Something	-10.8191
▁quiet	-10.8191
▁sharp	-10.8191
▁abrupt	-10.8191
▁practical	-10.8191
▁Horrible	-10.8191
▁NEVER	-10.8191
▁cardboard	-10.8191
▁slaughter	-10.8191
▁contrast	-10.8191
▁private	-10.8191
▁Think	-10.8192
▁Tyler	-10.8192
▁Ireland	-10.8192
▁Philip	-10.8192
▁comedies	-10.8192
▁blue	-10.8192
▁chain	-10.8192
▁marry	-10.8192
▁locate	-10.8192
▁invisible	-10.8192
▁robot	-10.8192
▁1940	-10.8192
▁department	-10.8192
▁wrapped	-10.8192
whilst	-10.8192
▁freedom	-10.8193
▁unoriginal	-10.8193
nder	-10.8193
▁moron	-10.8193
▁Walker	-10.8193
ture	-10.8194
▁closing	-10.8194
▁worthwhile	-10.8195
▁creation	-10.8195
▁editor	-10.8196
▁Doug	-10.8196
▁Eddie	-10.8197
▁swear	-10.8197
▁lab	-10.8198
▁flight	-10.8198
▁mor	-10.8198
▁BAD	-10.8198
▁Chase	-10.8198
▁friendship	-10.8199
▁Matthew	-10.8199
▁significant	-10.8199
▁explode	-10.8199
▁float	-10.8199
▁blend	-10.82
▁Full	-10.82
▁Jeff	-10.82
▁muddled	-10.8201
▁invite	-10.8201
▁bang	-10.8201
rmored	-10.8201
▁Lane	-10.8202
▁depiction	-10.8204
▁reject	-10.8204
▁ignore	-10.8204
▁Story	-10.8205
▁spoke	-10.8205
▁Chuck	-10.8206
▁Camp	-10.8206
▁wannabe	-10.8207
▁Alan	-10.8207
▁Lady	-10.8208
▁Last	-10.8209
efore	-10.8209
▁rooms	-10.821
▁Sub	-10.8211
▁Such	-10.8214
▁India	-10.8214
▁Fan	-10.8214
▁Over	-10.8215
▁MY	-10.8217
▁ancient	-10.822
▁achieved	-10.822
▁Basically	-10.8221
▁erotic	-10.8221
cil	-10.8221
▁Call	-10.8221
▁shouting	-10.8222
▁partner	-10.8223
▁wire	-10.8225
▁Obviously	-10.8226
▁blonde	-10.823
*1/2	-10.8231
▁Evil	-10.8232
▁ME	-10.8233
▁Boring	-10.8235
▁suffered	-10.8235
▁Allen	-10.8236
▁reel	-10.8241
▁exposed	-10.8244
▁Cole	-10.8246
▁Force	-10.8246
▁signs	-10.8249
▁resemble	-10.825
▁spoiled	-10.825
▁wi	-10.8252
▁nose	-10.8253
▁connected	-10.8254
▁chill	-10.8256
▁mentally	-10.8257
▁ham	-10.8258
▁hence	-10.8258
coming	-10.8259
▁absen	-10.8265
▁accepted	-10.8267
▁gain	-10.8267
emme	-10.827
▁ONE	-10.8277
▁delivery	-10.8277
▁deserved	-10.828
▁fooled	-10.8283
▁Need	-10.8283
▁stranger	-10.8286
rol	-10.8293
zo	-10.8297
jo	-10.8302
▁***	-10.8314
▁$	-10.832
▁shocked	-10.832
▁stealing	-10.8322
▁Art	-10.8333
▁listening	-10.8339
▁raped	-10.834
▁ju	-10.835
▁hanging	-10.8351
▁creators	-10.8357
▁gags	-10.8358
▁padd	-10.8367
▁continual	-10.8372
▁fla	-10.8383
▁growing	-10.84
▁Nazis	-10.8407
▁Character	-10.8425
▁passed	-10.8427
▁nine	-10.8438
Man	-10.8451
▁0	-10.8454
▁ears	-10.8458
▁stunts	-10.8459
▁$1	-10.8463
▁cap	-10.8466
▁guards	-10.848
▁enthusiast	-10.8486
hould	-10.8486
still	-10.8501
▁inspiration	-10.8516
▁mal	-10.8525
▁press	-10.8532
▁maker	-10.8533
ene	-10.8546
▁arrives	-10.8569
▁Ford	-10.8578
▁judg	-10.8617
▁tro	-10.862
▁arms	-10.864
▁disco	-10.8645
▁hir	-10.8649
key	-10.8652
▁Hoo	-10.8653
▁ring	-10.8656
▁San	-10.8665
▁Bri	-10.8671
gli	-10.8684
▁Ap	-10.8695
▁claims	-10.8696
▁Dad	-10.8697
▁suffer	-10.8706
bby	-10.8725
▁com	-10.873
▁murders	-10.8735
▁vs	-10.8744
OP	-10.8774
knowledge	-10.8774
▁Rob	-10.8799
Le	-10.8801
▁continue	-10.8802
▁Phillip	-10.8813
▁cliche	-10.8816
▁Yu	-10.8816
▁stunt	-10.8819
▁14	-10.8831
▁disc	-10.8853
▁tracks	-10.8853
▁arch	-10.8855
esh	-10.8857
▁Cop	-10.8871
war	-10.888
▁Base	-10.8883
▁belong	-10.8884
▁hu	-10.8889
ccording	-10.889
ILL	-10.8901
▁birds	-10.8907
▁25	-10.8912
▁tip	-10.8941
▁shoulder	-10.8948
▁tea	-10.8951
▁helping	-10.8953
▁fulfill	-10.8966
rent	-10.8966
▁severe	-10.8968
▁Val	-10.8991
▁annoy	-10.8993
val	-10.9007
▁assassin	-10.902
▁originally	-10.9027
ident	-10.903
appy	-10.9036
▁mud	-10.9037
field	-10.9039
maybe	-10.9041
video	-10.9041
point	-10.9041
something	-10.9041
ending	-10.9041
Watch	-10.9042
▁wind	-10.9043
why	-10.9044
11	-10.9044
▁relat	-10.9045
book	-10.9047
▁Final	-10.9064
▁unfortunate	-10.9065
▁easi	-10.9067
▁achieve	-10.9067
▁tune	-10.9067
▁occasional	-10.9071
abo	-10.9072
formed	-10.9073
ES	-10.9074
▁doom	-10.9075
ised	-10.9075
aught	-10.9077
▁threat	-10.9086
cap	-10.9086
▁cared	-10.9087
faced	-10.9089
▁Pro	-10.9089
▁origin	-10.9091
▁stone	-10.9091
▁rush	-10.9093
▁unbelievab	-10.9095
▁confront	-10.9098
▁Life	-10.9099
▁Carpenter	-10.91
▁disgrace	-10.91
▁rifle	-10.91
▁tunnel	-10.91
▁Apparently	-10.91
▁Barbara	-10.91
▁California	-10.91
▁Capote	-10.91
▁Crawford	-10.91
▁Incident	-10.91
▁Jamie	-10.91
▁Killjoy	-10.91
▁Massacre	-10.91
▁Stephen	-10.91
▁Video	-10.91
▁bargain	-10.91
▁chapter	-10.91
▁circumstances	-10.91
▁conceived	-10.91
▁confirm	-10.91
▁convoluted	-10.91
▁derivative	-10.91
▁guarantee	-10.91
▁increasing	-10.91
▁necessarily	-10.91
▁politics	-10.91
▁principle	-10.91
▁reflect	-10.91
▁technique	-10.91
immigrant	-10.91
▁Harvest	-10.91
▁Kubrick	-10.91
▁Nelson	-10.91
▁prior	-10.91
▁sheriff	-10.91
▁Dillon	-10.91
▁Monster	-10.91
▁accus	-10.91
▁asteroid	-10.91
▁banned	-10.91
▁eager	-10.91
▁interior	-10.91
▁recycl	-10.91
▁Carrie	-10.91
▁Year	-10.91
▁announce	-10.91
▁chassidi	-10.91
▁false	-10.91
▁inject	-10.91
Brazil	-10.91
▁homosexual	-10.91
▁burst	-10.91
▁broadcast	-10.91
▁gift	-10.91
▁controversial	-10.91
Graduat	-10.91
▁Salman	-10.91
▁descent	-10.91
▁Sometimes	-10.91
▁basis	-10.91
▁intense	-10.91
▁inserted	-10.91
▁link	-10.91
▁category	-10.9101
▁disguise	-10.9101
▁transfer	-10.9101
▁Channel	-10.9101
▁blink	-10.9101
▁SciFi	-10.9101
▁exchange	-10.9101
▁outrageous	-10.9101
▁Beast	-10.9101
▁Israel	-10.9101
▁food	-10.9101
▁kidnapper	-10.9101
▁interaction	-10.9101
▁Talk	-10.9101
▁rebel	-10.9101
▁trade	-10.9102
▁foul	-10.9102
▁incest	-10.9102
▁nauseating	-10.9102
▁Edgar	-10.9102
mber	-10.9103
▁Cuba	-10.9103
▁laser	-10.9103
▁coast	-10.9103
▁label	-10.9103
▁lackluster	-10.9103
▁proud	-10.9104
lbei	-10.9104
▁attend	-10.9104
▁vanish	-10.9104
▁Father	-10.9104
▁Princess	-10.9104
▁woods	-10.9104
▁combine	-10.9104
▁nerd	-10.9104
▁3000	-10.9105
▁slick	-10.9105
▁overlook	-10.9105
storm	-10.9105
▁cancel	-10.9105
▁Knight	-10.9106
▁boredom	-10.9106
▁investigation	-10.9106
▁ego	-10.9107
▁elsewhere	-10.9107
▁punk	-10.9107
▁ironic	-10.9107
▁Beyond	-10.9107
▁wig	-10.9107
▁sha	-10.9108
ching	-10.9108
▁everywhere	-10.9108
▁Clark	-10.9109
▁rack	-10.911
▁geek	-10.911
▁Cool	-10.911
fun	-10.9111
▁Saw	-10.9111
▁Sheba	-10.9111
▁moon	-10.9112
▁Miller	-10.9112
▁patient	-10.9115
▁Plot	-10.9115
▁Almost	-10.9116
▁disturbed	-10.9116
▁debut	-10.9116
▁Home	-10.9118
▁useful	-10.9119
▁shelf	-10.9119
▁outstanding	-10.912
▁shirt	-10.9121
▁mild	-10.9122
▁Baby	-10.9122
▁Marion	-10.9125
▁Lots	-10.9129
▁established	-10.9129
▁quit	-10.913
▁Lucy	-10.9131
▁latest	-10.9131
▁SPOILER	-10.9132
▁Plan	-10.9133
▁Rose	-10.9134
▁repeated	-10.9134
▁stumble	-10.9135
▁Young	-10.9135
▁Ark	-10.9137
▁removed	-10.9138
▁Back	-10.9141
▁Stooges	-10.9142
▁icon	-10.9143
▁corner	-10.9144
▁sand	-10.9144
▁blown	-10.9145
▁Louis	-10.9145
NCE	-10.9147
▁apartment	-10.915
▁witnessed	-10.9152
▁threatening	-10.9152
▁yard	-10.9154
▁bus	-10.9154
▁noise	-10.9154
trust	-10.9155
▁entertained	-10.9156
▁wrestler	-10.9158
▁Land	-10.9161
ened	-10.9164
▁Spacey	-10.9165
pical	-10.9172
▁vari	-10.9178
▁chopp	-10.918
▁flawed	-10.9181
▁West	-10.9182
▁brat	-10.9182
▁spy	-10.9184
▁naturally	-10.9185
asper	-10.9187
▁loosely	-10.9189
comprehensible	-10.9191
▁sucker	-10.9191
▁endure	-10.9193
▁Top	-10.9193
▁drawing	-10.9195
angel	-10.9199
▁row	-10.92
▁consum	-10.9204
0,000	-10.9205
▁candy	-10.9207
▁primar	-10.9209
▁Gues	-10.921
yr	-10.9222
▁errors	-10.9226
▁warn	-10.923
▁lone	-10.9231
▁Sch	-10.9252
▁boil	-10.928
▁despise	-10.9285
▁importantly	-10.9294
ellar	-10.9296
▁clips	-10.931
▁sock	-10.9312
rry	-10.9328
▁ador	-10.9342
▁HO	-10.9343
▁logical	-10.9357
actors	-10.9363
▁opened	-10.939
▁Ten	-10.9391
▁winds	-10.9394
▁belongs	-10.9395
going	-10.9395
▁Ju	-10.941
▁tin	-10.9412
OM	-10.9429
▁myth	-10.9433
▁bust	-10.9441
▁LA	-10.9476
▁conversations	-10.9509
▁colors	-10.951
▁Twi	-10.9514
RK	-10.9525
ature	-10.9526
bbing	-10.953
▁196	-10.9532
▁expressions	-10.9539
▁Gus	-10.9545
▁Lil	-10.9553
resumably	-10.9577
▁Fl	-10.9579
▁gate	-10.9586
▁doll	-10.959
ith	-10.9614
▁provid	-10.9657
▁portrays	-10.9661
ago	-10.9663
Rating	-10.9669
anger	-10.968
▁Die	-10.9684
▁exceptional	-10.9685
▁adding	-10.9699
RO	-10.97
▁specific	-10.97
▁gri	-10.9712
▁rocket	-10.9715
atory	-10.9763
▁Mor	-10.9773
▁returns	-10.9775
▁fed	-10.9777
▁topic	-10.9805
ique	-10.9821
▁dollar	-10.9823
q	-10.9823
▁Christ	-10.9829
GE	-10.9832
▁caring	-10.9844
ella	-10.9845
brow	-10.9873
▁fare	-10.9889
▁slip	-10.9906
30	-10.9909
▁doctors	-10.992
▁Days	-10.9921
▁seduce	-10.9947
▁promo	-10.9965
round	-10.9978
▁millions	-10.9981
such	-10.9983
▁woo	-10.9987
US	-10.9988
▁rule	-11.0002
▁chas	-11.0003
▁grab	-11.0007
▁Julie	-11.0017
▁study	-11.0034
Alien	-11.0039
claim	-11.0039
Dark	-11.004
Michael	-11.0041
dramatic	-11.0041
Most	-11.0041
free	-11.0041
motion	-11.0042
demon	-11.0043
through	-11.0043
class	-11.0043
awful	-11.0045
▁misse	-11.0047
▁investigat	-11.0051
dding	-11.0053
dress	-11.0055
pack	-11.0056
www	-11.0057
put	-11.0058
Fro	-11.0061
produc	-11.0064
▁surf	-11.0064
ified	-11.0065
▁trail	-11.0066
unless	-11.007
eason	-11.0081
▁dig	-11.0081
▁invest	-11.0084
▁gym	-11.0087
▁progress	-11.009
Truly	-11.0091
▁Ever	-11.0092
▁collect	-11.0095
▁psychologi	-11.0095
▁confess	-11.0096
assic	-11.0098
peaking	-11.0099
▁famili	-11.01
▁multi	-11.01
▁South	-11.01
PLEASE	-11.01
–	-11.01
▁Absolute	-11.01
▁Adonijah	-11.01
▁Brynner	-11.01
▁HAPP	-11.01
▁Holocaust	-11.01
▁Keaton	-11.01
▁Nightbeast	-11.01
▁Pistols	-11.01
▁Remember	-11.01
▁Sebastian	-11.01
▁Sidney	-11.01
▁Stewart	-11.01
▁WATCH	-11.01
▁accompanie	-11.01
▁casual	-11.01
▁combination	-11.01
▁complicated	-11.01
▁context	-11.01
▁convenient	-11.01
▁courage	-11.01
▁descend	-11.01
▁elephant	-11.01
▁festival	-11.01
▁gimmick	-11.01
▁glimpse	-11.01
▁incompetent	-11.01
▁jarring	-11.01
▁landscape	-11.01
▁magazine	-11.01
▁memories	-11.01
▁minimum	-11.01
▁nonsensical	-11.01
▁obscure	-11.01
▁pleasant	-11.01
▁profanity	-11.01
▁psychopath	-11.01
▁purchase	-11.01
▁railroad	-11.01
▁reputation	-11.01
▁respond	-11.01
▁schlock	-11.01
▁segment	-11.01
▁shrink	-11.01
▁simplistic	-11.01
▁striking	-11.01
▁suspicious	-11.01
▁undoubt	-11.01
▁worried	-11.01
▁AIDS	-11.01
▁Clooney	-11.01
▁elderly	-11.01
▁knife	-11.01
▁method	-11.01
▁montage	-11.01
▁tacky	-11.01
▁zoom	-11.01
▁Hammer	-11.01
▁blatant	-11.01
▁nowadays	-11.01
▁stranded	-11.01
▁unexpected	-11.01
▁unfold	-11.01
▁welcome	-11.01
▁Derek	-11.01
▁Sleep	-11.01
▁Vegas	-11.01
▁WAS	-11.01
▁ordinary	-11.01
▁warrior	-11.01
▁baffl	-11.01
▁crawl	-11.01
▁inhabit	-11.01
▁pause	-11.01
▁launch	-11.01
▁tactic	-11.01
▁DID	-11.01
▁churn	-11.01
▁abomination	-11.01
▁Clay	-11.01
▁offense	-11.01
▁Altman	-11.01
▁Play	-11.01
▁evident	-11.01
▁Kelly	-11.01
▁Stock	-11.01
▁disconnect	-11.01
▁Rome	-11.01
▁devote	-11.01
▁bumbl	-11.01
▁mugg	-11.01
▁kiss	-11.01
▁security	-11.01
ELL	-11.01
▁Quaid	-11.01
▁contemporary	-11.01
▁Terrible	-11.01
▁Bridge	-11.01
▁profit	-11.01
▁dubbing	-11.01
▁engage	-11.01
▁retire	-11.0101
▁transport	-11.0101
▁thief	-11.0101
▁kidnapped	-11.0101
▁Thorpe	-11.0101
▁cannibal	-11.0101
▁symbolism	-11.0101
▁Raimi	-11.0101
▁cheer	-11.0101
▁blank	-11.0101
▁Antoni	-11.0101
▁sidekick	-11.0101
▁Irish	-11.0101
▁identity	-11.0101
▁punish	-11.0101
▁Pitt	-11.0101
▁dragged	-11.0101
▁trite	-11.0101
▁proceedings	-11.0102
▁measure	-11.0102
▁competent	-11.0102
▁inventive	-11.0102
▁buddy	-11.0102
▁achievement	-11.0102
▁combat	-11.0102
▁loving	-11.0102
▁route	-11.0102
▁Marlow	-11.0102
▁Almighty	-11.0102
▁China	-11.0102
▁pitch	-11.0102
▁wrap	-11.0102
▁subtlety	-11.0102
▁1/10	-11.0102
▁skeleton	-11.0103
▁Uwe	-11.0103
▁Bobby	-11.0103
ssuming	-11.0103
▁spill	-11.0103
▁Perch	-11.0103
▁unknown	-11.0103
▁alter	-11.0103
▁universe	-11.0104
▁Biblical	-11.0104
▁obnoxious	-11.0104
▁psychiatri	-11.0104
▁Could	-11.0104
▁Santa	-11.0104
▁raw	-11.0104
▁hostage	-11.0104
▁thug	-11.0104
ssembl	-11.0104
▁Down	-11.0105
▁neat	-11.0105
▁Duke	-11.0105
▁Morgan	-11.0105
▁moronic	-11.0105
▁16	-11.0105
▁99	-11.0106
▁antics	-11.0106
▁coffe	-11.0107
▁cookie	-11.0107
▁handsome	-11.0107
▁pants	-11.0107
stein	-11.0107
▁betrayal	-11.0107
▁bump	-11.0107
▁possibility	-11.0107
▁Lena	-11.0108
▁Snow	-11.0108
▁Crow	-11.0108
▁laid	-11.0108
▁pool	-11.0108
▁Colin	-11.0109
▁starred	-11.0109
▁define	-11.011
▁Mencia	-11.011
▁fancy	-11.0111
▁tolerate	-11.0111
▁national	-11.0111
▁Mason	-11.0111
▁Carol	-11.0111
▁wedding	-11.0111
▁transform	-11.0113
▁Super	-11.0113
▁UP	-11.0115
ENT	-11.0115
▁Death	-11.0117
▁Wait	-11.0117
▁enjoyment	-11.0117
▁Swan	-11.0117
?!?!	-11.0117
▁fictional	-11.0118
glass	-11.0119
▁Roll	-11.0122
now	-11.0122
▁Pick	-11.0123
▁worn	-11.0123
▁Ross	-11.0123
▁Ghost	-11.0123
▁Frost	-11.0125
▁instantly	-11.0125
▁21	-11.0127
▁Seven	-11.0128
▁coke	-11.0129
▁photographer	-11.0129
▁craft	-11.013
itch	-11.0131
▁shaking	-11.0131
▁qua	-11.0134
▁Meanwhile	-11.0136
▁faithful	-11.0138
signed	-11.0142
▁expose	-11.0143
▁dire	-11.0146
▁quirky	-11.0148
▁commander	-11.0149
into	-11.015
▁bitter	-11.0152
▁Billy	-11.0173
▁continued	-11.0179
tiny	-11.019
ille	-11.0193
▁Dove	-11.0195
▁kicked	-11.0195
▁emerg	-11.0199
▁oil	-11.02
ooney	-11.0202
▁survived	-11.0203
mons	-11.0209
REALLY	-11.0218
▁crashing	-11.022
▁related	-11.0228
▁slap	-11.0233
▁dated	-11.0238
▁visually	-11.0241
▁sexually	-11.0245
▁pointed	-11.0253
sexual	-11.0253
itz	-11.0256
▁Your	-11.0256
▁bones	-11.0258
▁fate	-11.0263
▁props	-11.0282
▁rant	-11.0287
▁sports	-11.0302
▁sal	-11.0303
▁bra	-11.0304
▁carrying	-11.0309
▁OR	-11.0323
▁Ven	-11.0326
oli	-11.033
(..	-11.0333
llo	-11.0338
▁appealing	-11.0344
▁listed	-11.0344
evel	-11.0347
nnie	-11.0355
vid	-11.0359
▁motives	-11.0365
▁explosions	-11.0365
By	-11.0373
actor	-11.0382
▁dealers	-11.0387
▁kinda	-11.0389
▁rules	-11.0393
▁Phillips	-11.0428
bag	-11.0429
▁Sel	-11.0436
▁resembles	-11.0448
▁explaining	-11.045
▁Seem	-11.046
▁commenting	-11.0462
▁comp	-11.0488
▁tears	-11.049
▁thrills	-11.0495
▁BE	-11.0497
▁Pam	-11.0506
▁beating	-11.0521
▁Hills	-11.0524
▁brave	-11.0527
▁(?)	-11.0543
tec	-11.0563
▁Han	-11.0568
▁fac	-11.057
ESS	-11.0577
▁faced	-11.0583
▁str	-11.0585
cation	-11.0594
▁Var	-11.0631
▁Col	-11.0636
▁Christin	-11.064
▁subplots	-11.0652
▁protagonists	-11.0656
▁forty	-11.0681
▁hal	-11.0686
mmed	-11.0701
cutter	-11.0702
▁fur	-11.0712
cid	-11.0716
▁Wor	-11.073
▁dud	-11.0752
▁SO	-11.0753
▁5-	-11.0768
▁17	-11.077
sci	-11.0775
▁hol	-11.0775
8)	-11.0811
worker	-11.0815
yard	-11.083
unning	-11.0835
▁GI	-11.0841
▁Chic	-11.0849
Step	-11.0857
rash	-11.0867
▁namely	-11.0881
▁194	-11.0884
▁ninet	-11.0887
▁continu	-11.0892
LA	-11.0896
****	-11.0897
▁stereotype	-11.0898
bul	-11.0901
▁explosion	-11.0924
▁motive	-11.0924
▁Mill	-11.093
▁month	-11.0932
▁State	-11.0934
▁Ring	-11.0939
▁Nazi	-11.0944
sea	-11.0952
▁skill	-11.0952
▁swa	-11.0957
▁spoiler	-11.0969
▁mate	-11.0976
▁Ce	-11.099
▁dealer	-11.1007
▁destin	-11.1012
▁UN	-11.1025
only	-11.1027
hearted	-11.1056
▁Pi	-11.1078
▁escap	-11.1083
▁wr	-11.1086
ggy	-11.1097
▁200	-11.1099
elli	-11.1101
▁disappoint	-11.1103
▁edit	-11.1104
evil	-11.112
standing	-11.1124
piece	-11.1129
▁Anne	-11.1129
Chris	-11.1146
written	-11.1148
▁satisfy	-11.1148
Finally	-11.1149
witch	-11.1149
plain	-11.115
Robert	-11.1151
phone	-11.1152
worst	-11.1152
minute	-11.1153
Look	-11.1154
scary	-11.1155
▁invent	-11.1158
Matt	-11.1159
Kill	-11.1161
porn	-11.1161
think	-11.1164
▁threaten	-11.1165
India	-11.1166
▁Grant	-11.1167
▁haunt	-11.1168
series	-11.117
▁initial	-11.1174
▁definite	-11.1176
hero	-11.1184
▁guilt	-11.1188
▁robber	-11.1188
▁convention	-11.119
▁suspens	-11.1191
▁Whe	-11.1197
ization	-11.1198
▁occasion	-11.1201
pm	-11.1202
▁pursu	-11.1207
▁Brad	-11.121
▁trauma	-11.121
▁oppos	-11.1211
THING	-11.1211
]	-11.1211
explosive	-11.1211
▁Garcia	-11.1211
▁Virgi	-11.1211
▁misguided	-11.1211
▁plausible	-11.1211
▁reminiscen	-11.1211
Factotum	-11.1211
werewolf	-11.1211
▁Arabia	-11.1211
▁Bergman	-11.1211
▁Bronson	-11.1211
▁Bukowski	-11.1211
▁COBRA	-11.1211
▁Canada	-11.1211
▁Central	-11.1211
▁Dahmer	-11.1211
▁Egypt	-11.1211
▁Especially	-11.1211
▁Eventually	-11.1211
▁Fulci	-11.1211
▁Greek	-11.1211
▁Hoffman	-11.1211
▁Internet	-11.1211
▁Kidman	-11.1211
▁Leonard	-11.1211
▁Monogram	-11.1211
▁Picture	-11.1211
▁Sarkar	-11.1211
▁Zombie	-11.1211
▁alternate	-11.1211
▁alternative	-11.1211
▁artificial	-11.1211
▁caricature	-11.1211
▁cliff	-11.1211
▁clunky	-11.1211
▁conspirac	-11.1211
▁distributor	-11.1211
▁encourage	-11.1211
▁enormous	-11.1211
▁evoke	-11.1211
▁explicit	-11.1211
▁frozen	-11.1211
▁guitar	-11.1211
▁holiday	-11.1211
▁homage	-11.1211
▁illogical	-11.1211
▁importance	-11.1211
▁infamous	-11.1211
▁insipid	-11.1211
▁intrigue	-11.1211
▁journey	-11.1211
▁mainstream	-11.1211
▁mundane	-11.1211
▁premiere	-11.1211
▁prince	-11.1211
▁principal	-11.1211
▁resurrect	-11.1211
▁scheme	-11.1211
▁shodd	-11.1211
▁skull	-11.1211
▁stilted	-11.1211
▁suspend	-11.1211
▁swallow	-11.1211
▁unappealing	-11.1211
▁veteran	-11.1211
▁wardrobe	-11.1211
Interesting	-11.1211
▁CNN	-11.1211
▁Firth	-11.1211
▁Freeman	-11.1211
▁Gothic	-11.1211
▁Kirk	-11.1211
▁Russell	-11.1211
▁SEAL	-11.1211
▁awake	-11.1211
▁coffin	-11.1211
▁credible	-11.1211
▁distinguish	-11.1211
▁examine	-11.1211
▁firefighter	-11.1211
▁french	-11.1211
▁puke	-11.1211
▁smell	-11.1211
▁trivia	-11.1211
▁Jake	-11.1211
▁Owen	-11.1211
▁danton	-11.1211
▁drown	-11.1211
▁garden	-11.1211
▁Believe	-11.1211
▁DAYS	-11.1211
▁Greg	-11.1211
▁Mateo	-11.1211
▁resort	-11.1211
▁Price	-11.1211
▁minimal	-11.1211
▁Khan	-11.1211
▁contestants	-11.1211
▁internet	-11.1211
-13	-11.1211
Canadian	-11.1211
▁strict	-11.1211
▁Batman	-11.1211
▁Martha	-11.1211
▁Town	-11.1211
▁banal	-11.1211
Number	-11.1211
▁riot	-11.1211
▁Carrey	-11.1211
▁sickening	-11.1211
▁Foot	-11.1211
▁spell	-11.1211
spiring	-11.1211
▁Chinaski	-11.1211
▁Water	-11.1211
▁worry	-11.1212
▁bathroom	-11.1212
▁structure	-11.1212
▁dinosaur	-11.1212
▁Garfield	-11.1212
▁Old	-11.1212
ACK	-11.1212
▁cultural	-11.1212
▁showcase	-11.1212
Silence	-11.1212
▁WORS	-11.1212
Third	-11.1212
▁1990	-11.1212
▁Grey	-11.1212
▁Jerk	-11.1212
▁Redford	-11.1212
▁Zeta	-11.1212
Major	-11.1212
▁argument	-11.1212
▁trend	-11.1212
▁$4	-11.1212
▁Hackman	-11.1212
▁chew	-11.1213
▁resist	-11.1213
▁inexplicabl	-11.1213
▁unrelated	-11.1213
▁parade	-11.1213
▁swim	-11.1213
▁Harold	-11.1213
▁hood	-11.1213
▁urge	-11.1213
▁spread	-11.1213
▁thread	-11.1213
▁hungry	-11.1213
▁criticism	-11.1213
▁Micke	-11.1213
▁eighties	-11.1213
▁bride	-11.1213
▁misery	-11.1213
▁Romero	-11.1213
▁Kind	-11.1214
▁underwater	-11.1214
▁Carey	-11.1214
▁STAR	-11.1214
▁nonexistent	-11.1214
▁Caine	-11.1214
▁Know	-11.1214
▁audio	-11.1214
▁basement	-11.1215
▁McCo	-11.1215
▁slightest	-11.1215
▁address	-11.1215
▁Leach	-11.1215
▁objective	-11.1215
▁mansion	-11.1215
▁interpretation	-11.1215
▁Wilkinson	-11.1215
▁committed	-11.1216
▁Scream	-11.1216
▁gem	-11.1217
kill	-11.1217
▁Beach	-11.1217
▁Jill	-11.1217
▁frustrated	-11.1217
▁liberal	-11.1217
▁jaw	-11.1217
▁hill	-11.1217
▁possession	-11.1217
▁ultra	-11.1218
▁vast	-11.1218
ville	-11.1218
▁Zone	-11.1218
▁rubb	-11.1218
▁lake	-11.1218
▁suspenseful	-11.1219
▁carefully	-11.1219
▁defend	-11.1219
▁tame	-11.122
▁FOR	-11.122
▁await	-11.1221
▁publicity	-11.1221
▁bible	-11.1221
▁unlikeable	-11.1221
▁generat	-11.1221
▁preacher	-11.1222
▁block	-11.1222
▁Franco	-11.1222
▁Lawrence	-11.1222
▁tolerable	-11.1223
ARD	-11.1223
impos	-11.1223
▁drunken	-11.1223
▁Hour	-11.1224
▁arrested	-11.1225
▁shameless	-11.1226
▁Marsh	-11.1228
▁EVER	-11.1228
▁goof	-11.1228
▁uneven	-11.1229
▁copies	-11.1229
▁Iraqi	-11.1229
annon	-11.123
▁inspired	-11.123
▁scarecrow	-11.123
▁split	-11.123
UD	-11.1231
indulgent	-11.1232
▁wheel	-11.1233
▁directorial	-11.1234
IGHT	-11.1234
▁Dick	-11.1235
▁robbery	-11.1235
▁Angeles	-11.1236
▁brand	-11.1237
▁Honestly	-11.1237
▁Battle	-11.1237
▁Nation	-11.1238
glorious	-11.1238
▁Whatever	-11.1239
▁Scar	-11.1239
▁Australian	-11.1239
▁partial	-11.1239
▁handle	-11.124
▁Diana	-11.1241
▁choppy	-11.1241
▁fourth	-11.1243
▁racist	-11.1243
▁inappropriate	-11.1244
▁Besides	-11.1245
▁/>1.	-11.1247
▁retarded	-11.1248
▁Stay	-11.1248
▁clone	-11.1249
▁huh	-11.1251
▁topless	-11.1252
▁dresses	-11.1252
▁Thank	-11.1252
▁finest	-11.1254
▁balance	-11.1254
▁Acting	-11.1255
▁realism	-11.1256
etro	-11.1258
▁2/10	-11.1258
▁Dave	-11.1259
▁Jan	-11.1262
▁Head	-11.1262
▁lucky	-11.1264
▁wow	-11.1265
▁shi	-11.1268
▁Ash	-11.1268
▁pirate	-11.1272
▁Bell	-11.1273
▁introduce	-11.1274
▁Hall	-11.1275
person	-11.1281
▁Ator	-11.1292
iva	-11.13
▁bound	-11.1303
▁Juliet	-11.1306
▁fu	-11.1306
▁marketing	-11.1307
▁ranch	-11.1308
▁historically	-11.1309
▁thrilling	-11.131
▁armed	-11.1312
▁tripe	-11.1314
▁Morn	-11.1315
▁Finally	-11.132
LOW	-11.1322
▁greatness	-11.1325
▁flavo	-11.1325
▁manager	-11.1326
▁Lion	-11.1329
▁repeating	-11.1331
▁Hero	-11.1339
▁lifeless	-11.1341
▁rolled	-11.1349
▁dimensional	-11.1349
▁bounc	-11.1351
esque	-11.1358
▁Nim	-11.1366
▁observ	-11.1368
▁bullets	-11.1368
▁Gay	-11.1371
▁heap	-11.1371
ji	-11.1372
▁dub	-11.1381
▁guts	-11.1403
▁lips	-11.1403
ARE	-11.1411
▁noir	-11.1414
▁charming	-11.1416
▁hunter	-11.1417
▁finale	-11.1418
▁Nav	-11.1429
▁Hot	-11.1435
▁Simpsons	-11.1438
▁legal	-11.1446
▁contribut	-11.1446
▁Air	-11.1459
ulous	-11.146
▁seeking	-11.1462
▁rot	-11.1465
cast	-11.1472
Mis	-11.1473
▁proceeds	-11.1474
▁dust	-11.1476
▁concentrate	-11.1482
▁experienced	-11.15
▁recit	-11.151
40	-11.1513
▁Jud	-11.1523
ril	-11.1533
▁topics	-11.1546
immer	-11.1552
OWN	-11.1562
▁admir	-11.1568
▁magical	-11.1582
▁Clo	-11.1592
▁passe	-11.1603
▁sel	-11.161
▁jumping	-11.161
▁hall	-11.1611
▁Kim	-11.1635
▁Ya	-11.1645
▁popp	-11.1653
gun	-11.1661
ocketship	-11.1669
tograph	-11.1674
oid	-11.1676
▁arc	-11.1681
mato	-11.1697
uge	-11.1707
mail	-11.1725
FI	-11.1729
▁Bal	-11.1732
veral	-11.174
cue	-11.174
mission	-11.1741
wan	-11.1745
take	-11.1778
wai	-11.1779
▁nicely	-11.1796
Sh	-11.1796
▁Patric	-11.1824
▁Ph	-11.1835
vic	-11.1838
▁fighter	-11.1842
▁Sad	-11.1846
▁Wors	-11.1847
last	-11.185
ika	-11.1878
▁exp	-11.188
▁Wha	-11.1885
ough	-11.1925
▁king	-11.1928
IG	-11.1936
alo	-11.1944
▁insist	-11.1949
Of	-11.1958
▁Hi	-11.1965
minded	-11.1979
▁parent	-11.1992
shes	-11.1997
olice	-11.2049
▁admire	-11.2071
cher	-11.2082
▁comfortabl	-11.2082
girl	-11.2119
▁Mag	-11.2122
father	-11.2139
rum	-11.2142
▁temp	-11.2149
▁proceed	-11.217
▁Lie	-11.2176
▁clip	-11.2177
▁Nati	-11.2178
ouch	-11.2213
lude	-11.224
▁employ	-11.2244
bie	-11.225
▁surreal	-11.2271
uster	-11.2276
▁receiv	-11.2289
ould	-11.2292
ounce	-11.2308
struct	-11.2316
▁Nin	-11.2328
▁squa	-11.2369
▁rever	-11.2374
lend	-11.2381
world	-11.2388
water	-11.2399
Evil	-11.24
soldier	-11.24
Second	-11.24
Movie	-11.2401
Jones	-11.2401
strong	-11.2402
spot	-11.2402
black	-11.2402
wife	-11.2402
weight	-11.2402
Star	-11.2403
happy	-11.2406
Joe	-11.2408
Night	-11.2411
Still	-11.2413
found	-11.2414
etti	-11.2414
▁limit	-11.2415
wolves	-11.2433
▁greed	-11.2437
▁opportunit	-11.2438
▁remove	-11.2439
▁stole	-11.2443
earned	-11.2445
▁pad	-11.2446
▁insight	-11.2451
bile	-11.2452
Here	-11.2452
▁sentiment	-11.2452
▁dimension	-11.2453
▁betray	-11.2453
ternational	-11.2454
▁quest	-11.2457
▁uncle	-11.2458
neath	-11.2459
▁Jordan	-11.2459
▁victor	-11.246
apocalyp	-11.246
evolution	-11.246
traffic	-11.2461
▁Century	-11.2461
▁England	-11.2461
▁colleague	-11.2461
▁devastat	-11.2461
▁illustrat	-11.2461
▁phony	-11.2461
▁population	-11.2461
▁unsatisfying	-11.2461
Dudikoff	-11.2461
▁1972	-11.2461
▁Afghanistan	-11.2461
▁Bollywood	-11.2461
▁Clampett	-11.2461
▁Elizabeth	-11.2461
▁Everybody	-11.2461
▁Exorcis	-11.2461
▁Floyd	-11.2461
▁Hallmark	-11.2461
▁Hyde	-11.2461
▁Joseph	-11.2461
▁Lillith	-11.2461
▁Mitchell	-11.2461
▁RGV	-11.2461
▁Ricci	-11.2461
▁Savannah	-11.2461
▁Storm	-11.2461
▁Triangle	-11.2461
▁album	-11.2461
▁assault	-11.2461
▁backdrop	-11.2461
▁caliber	-11.2461
▁celebrit	-11.2461
▁circle	-11.2461
▁clumsy	-11.2461
▁coincidence	-11.2461
▁communication	-11.2461
▁condition	-11.2461
▁custom	-11.2461
▁disagree	-11.2461
▁embarrassment	-11.2461
▁ensues	-11.2461
▁executive	-11.2461
▁inaccurate	-11.2461
▁inconsistent	-11.2461
▁jewel	-11.2461
▁neurotic	-11.2461
▁nightclub	-11.2461
▁passengers	-11.2461
▁pearls	-11.2461
▁spectrum	-11.2461
▁strike	-11.2461
▁thieves	-11.2461
▁thirty	-11.2461
▁tremendous	-11.2461
▁trilogy	-11.2461
▁underground	-11.2461
▁unpleasant	-11.2461
▁venture	-11.2461
▁vigilante	-11.2461
▁virgin	-11.2461
▁website	-11.2461
▁widow	-11.2461
▁Behind	-11.2461
▁Damme	-11.2461
▁Fiction	-11.2461
▁deputy	-11.2461
▁frankly	-11.2461
▁fraud	-11.2461
▁illegal	-11.2461
▁obligat	-11.2461
▁recruit	-11.2461
▁virus	-11.2461
▁yadda	-11.2461
brilliance	-11.2461
▁/>4/10	-11.2461
▁Indeed	-11.2461
▁destruction	-11.2461
▁drain	-11.2461
▁drove	-11.2461
▁edgy	-11.2461
▁official	-11.2461
▁plug	-11.2461
▁WWII	-11.2461
▁afternoon	-11.2461
▁tackle	-11.2461
Bottom	-11.2461
▁Woman	-11.2461
▁spawn	-11.2461
▁Tyree	-11.2461
▁steam	-11.2461
▁Damon	-11.2461
▁Wanda	-11.2461
▁digital	-11.2461
▁firm	-11.2461
▁Turner	-11.2461
▁pray	-11.2461
▁resume	-11.2461
▁sweat	-11.2461
▁gloss	-11.2461
▁lord	-11.2461
▁rational	-11.2461
OTHER	-11.2461
▁adopt	-11.2461
▁radioactive	-11.2461
▁dispos	-11.2461
▁Through	-11.2461
▁Univers	-11.2461
▁woeful	-11.2461
▁afford	-11.2461
thirst	-11.2461
▁quasi	-11.2461
▁filth	-11.2461
▁weather	-11.2461
▁informative	-11.2461
▁vacation	-11.2461
▁downfall	-11.2462
smoking	-11.2462
▁Lovecraft	-11.2462
▁grainy	-11.2462
▁declare	-11.2462
▁aircraft	-11.2462
▁Hurt	-11.2462
▁Thankfully	-11.2462
▁ambi	-11.2462
▁confusion	-11.2462
▁trace	-11.2462
▁Kathy	-11.2462
▁calm	-11.2462
▁vivid	-11.2462
▁stalk	-11.2462
▁Jackass	-11.2462
▁facial	-11.2462
khan	-11.2462
▁imaginable	-11.2462
▁chunk	-11.2462
▁dominate	-11.2462
▁2007	-11.2462
▁genetic	-11.2462
▁path	-11.2462
▁vicious	-11.2462
▁smash	-11.2462
▁Sister	-11.2462
▁100%	-11.2462
▁1930	-11.2462
▁attach	-11.2463
▁grasp	-11.2463
▁spook	-11.2463
▁psychic	-11.2463
▁unbearable	-11.2463
▁Linne	-11.2463
▁Eyes	-11.2463
▁cloud	-11.2463
▁Theater	-11.2464
▁decline	-11.2464
▁Planet	-11.2464
▁harmless	-11.2464
▁translation	-11.2464
▁Showtime	-11.2464
▁Denn	-11.2464
udge	-11.2464
DAY	-11.2464
▁hunk	-11.2464
▁bigot	-11.2464
▁similarities	-11.2464
▁lens	-11.2464
▁Shame	-11.2464
▁Michelle	-11.2465
▁East	-11.2465
▁hung	-11.2465
▁Candy	-11.2465
▁scriptwriter	-11.2465
▁static	-11.2465
mistress	-11.2465
▁survival	-11.2466
▁grind	-11.2466
▁wack	-11.2466
▁thick	-11.2466
▁Bush	-11.2466
▁horrifying	-11.2466
▁countryside	-11.2466
▁hideous	-11.2467
▁cents	-11.2467
▁Harry	-11.2467
ugby	-11.2468
▁foolish	-11.2468
▁Emil	-11.2468
mination	-11.2468
▁brick	-11.2469
▁Hind	-11.2469
▁slave	-11.2469
ROM	-11.247
▁Terr	-11.247
▁Korean	-11.247
▁nearby	-11.2471
▁FX	-11.2471
▁cabin	-11.2471
▁Rita	-11.2473
▁blast	-11.2473
▁DON	-11.2473
▁tire	-11.2473
Jaws	-11.2474
▁Personally	-11.2474
▁pathetically	-11.2474
▁winter	-11.2474
▁Robo	-11.2474
▁1/2	-11.2474
▁Italy	-11.2475
▁Street	-11.2475
▁sail	-11.2475
▁Return	-11.2475
imi	-11.2477
▁Lang	-11.2477
▁bias	-11.2477
▁affection	-11.2478
▁sideline	-11.2478
▁Ku	-11.248
Eye	-11.248
▁bubble	-11.2481
Wor	-11.2482
▁policeman	-11.2482
▁Austin	-11.2482
▁phrase	-11.2482
▁Club	-11.2482
▁campus	-11.2483
▁Code	-11.2483
voting	-11.2483
▁Direct	-11.2484
▁everyday	-11.2485
Turn	-11.2485
▁=	-11.2485
▁cock	-11.2486
▁Johnson	-11.2486
▁Road	-11.2487
▁dumbest	-11.2487
▁Fine	-11.2488
new	-11.2488
▁Gate	-11.2489
▁meander	-11.249
▁worship	-11.2491
▁wage	-11.2492
▁ranger	-11.2492
▁cup	-11.2493
▁tribe	-11.2493
▁sec	-11.2494
▁recommendation	-11.2496
intelligent	-11.2496
▁busy	-11.2497
▁mill	-11.2497
anche	-11.2497
!!!!!!	-11.2498
▁milk	-11.2498
▁Hellraiser	-11.2499
▁cheek	-11.2499
▁exit	-11.2499
▁Pep	-11.25
▁photographed	-11.2503
▁Army	-11.2503
fanatic	-11.2504
▁tense	-11.2505
▁Andrew	-11.2505
▁beast	-11.2506
▁stoned	-11.2507
▁improve	-11.2509
▁arrogant	-11.2512
▁lonely	-11.2513
▁setup	-11.2514
▁III	-11.2514
eyed	-11.2515
▁fortune	-11.2516
▁Dear	-11.2516
▁factory	-11.2517
▁101	-11.2518
▁Nick	-11.2519
▁desired	-11.2519
Bride	-11.2521
▁Lost	-11.2523
▁needless	-11.253
▁select	-11.2531
▁bikini	-11.2532
Normal	-11.2535
▁improved	-11.2535
▁outset	-11.2538
OUR	-11.254
▁stupidest	-11.2543
▁Granted	-11.2545
▁cutting	-11.2548
▁Histor	-11.2551
▁conclude	-11.2554
▁outright	-11.2559
▁counter	-11.2559
▁Say	-11.2562
▁swing	-11.2566
Cherry	-11.2567
▁distracting	-11.2567
▁Soon	-11.2567
yet	-11.2569
▁upper	-11.2569
▁mistaken	-11.2573
▁Kai	-11.2575
▁referr	-11.2577
▁users	-11.258
▁Anna	-11.2584
Gere	-11.2588
rupt	-11.2594
gage	-11.2595
▁disappeared	-11.2598
▁Brothers	-11.2601
▁survivors	-11.2601
7)	-11.2602
▁feed	-11.2603
warm	-11.2605
▁staged	-11.2607
▁dumber	-11.2608
polar	-11.2608
▁Welles	-11.2613
▁returned	-11.2616
▁Victoria	-11.2617
evy	-11.2623
▁failing	-11.2629
River	-11.2638
▁Burns	-11.2643
▁forbidd	-11.2643
▁designer	-11.2643
Tom	-11.2644
▁mus	-11.2645
▁overuse	-11.2648
▁format	-11.2655
-20	-11.2662
▁pale	-11.2664
▁IQ	-11.2666
▁chased	-11.2672
▁painting	-11.2675
▁stated	-11.2677
▁LO	-11.2679
▁fired	-11.2696
▁aired	-11.2707
▁comb	-11.272
▁coat	-11.2735
98	-11.2743
▁tempt	-11.2745
ural	-11.2746
▁prob	-11.2752
▁cake	-11.2752
▁MU	-11.2783
▁(199	-11.2784
▁intentional	-11.2796
▁degrad	-11.2799
▁commented	-11.2801
▁si	-11.2802
ipped	-11.2819
Mak	-11.2822
goer	-11.2831
▁Ric	-11.2836
hl	-11.2839
▁goodness	-11.2842
▁badness	-11.2843
▁substitute	-11.2854
▁Ze	-11.2867
lip	-11.2883
▁west	-11.2905
▁Bor	-11.2917
▁completed	-11.2933
ood	-11.2972
▁settle	-11.2981
▁Yo	-11.2987
rick	-11.3005
▁rac	-11.3021
▁jet	-11.3028
inning	-11.305
▁Ham	-11.3056
▁slum	-11.3132
▁hum	-11.3143
▁Gene	-11.3145
ega	-11.3161
▁Gr	-11.3181
▁mon	-11.3189
▁explore	-11.3202
▁bob	-11.321
NG	-11.3217
▁inform	-11.322
aki	-11.3248
*****	-11.3255
▁Dal	-11.3304
Dr	-11.3325
▁settl	-11.335
▁Pare	-11.3364
▁Nig	-11.3382
▁ev	-11.339
▁believ	-11.3391
▁pat	-11.342
ahl	-11.343
▁Unc	-11.3491
graphy	-11.3521
HR	-11.3535
▁$5	-11.3539
▁figur	-11.3541
orrow	-11.3547
headed	-11.3558
DY	-11.3566
▁compar	-11.3592
▁gag	-11.3594
▁Simpson	-11.3601
▁breast	-11.3607
▁sport	-11.3609
▁blur	-11.3614
▁creator	-11.3619
addle	-11.3626
horny	-11.3636
▁Sla	-11.367
servant	-11.3686
▁Unlik	-11.3693
▁improv	-11.3711
lapping	-11.3725
nything	-11.3725
tanic	-11.3725
▁expos	-11.3733
gree	-11.3761
ody	-11.3761
▁refer	-11.377
sided	-11.3771
▁photograph	-11.3776
▁disgust	-11.3779
▁authentic	-11.3789
most	-11.3796
CIA	-11.3798
▁Pie	-11.3811
know	-11.3814
▁refuge	-11.3819
SPOILER	-11.3821
▁complet	-11.3823
▁blond	-11.3824
aves	-11.3826
comfortabl	-11.3827
fortune	-11.3827
Obviously	-11.3828
quit	-11.3829
word	-11.3829
foot	-11.3829
Sadly	-11.3829
adventure	-11.3829
correct	-11.3829
Please	-11.383
Love	-11.383
thriller	-11.383
white	-11.383
Come	-11.383
actually	-11.3831
Sorry	-11.3831
poor	-11.3831
holes	-11.3831
▁possess	-11.3831
scene	-11.3834
sorry	-11.3835
box	-11.3836
instead	-11.3837
check	-11.3837
▁impress	-11.3839
Who	-11.3841
wow	-11.3842
master	-11.3842
▁establish	-11.3843
▁identi	-11.3845
blow	-11.3849
known	-11.3849
avan	-11.3849
▁capital	-11.3852
▁adequate	-11.3852
either	-11.3855
▁instant	-11.3856
▁prepare	-11.3859
▁jealous	-11.3865
both	-11.3866
Bill	-11.3866
▁dirt	-11.3867
oops	-11.3867
▁Australia	-11.3868
orious	-11.3872
▁cam	-11.3873
▁engine	-11.3875
ookie	-11.3876
▁Law	-11.3878
producer	-11.388
▁preach	-11.3885
IVE	-11.3885
▁imagina	-11.3886
▁School	-11.3888
cript	-11.3888
ecommended	-11.3889
▁tech	-11.3889
itude	-11.389
▁Turk	-11.389
Chappelle	-11.389
Kristin	-11.389
▁1981	-11.389
▁9/11	-11.389
▁Alucard	-11.389
▁Argento	-11.389
▁Bulgaria	-11.389
▁Certainly	-11.389
▁Curtis	-11.389
▁DEAD	-11.389
▁Diamond	-11.389
▁Fortunately	-11.389
▁Govinda	-11.389
▁Hector	-11.389
▁Henriksen	-11.389
▁Leonora	-11.389
▁Levinson	-11.389
▁McLaren	-11.389
▁Milligan	-11.389
▁NASA	-11.389
▁Nickelodeon	-11.389
▁Quentin	-11.389
▁Soviet	-11.389
▁Spaghetti	-11.389
▁Spielberg	-11.389
▁Vaughn	-11.389
▁WITH	-11.389
▁YouTube	-11.389
▁acquir	-11.389
▁advertising	-11.389
▁antagonist	-11.389
▁atmospheric	-11.389
▁camcorder	-11.389
▁compromis	-11.389
▁cruci	-11.389
▁cynical	-11.389
▁drift	-11.389
▁dynamite	-11.389
▁econom	-11.389
▁elaborate	-11.389
▁fiancé	-11.389
▁frustrating	-11.389
▁frustration	-11.389
▁giggl	-11.389
▁gorgeous	-11.389
▁gorilla	-11.389
▁gravity	-11.389
▁grotesque	-11.389
▁inevitable	-11.389
▁innovative	-11.389
▁insurgents	-11.389
▁irritate	-11.389
▁juvenile	-11.389
▁legitimate	-11.389
▁license	-11.389
▁medieval	-11.389
▁mirror	-11.389
▁narrator	-11.389
▁ourselves	-11.389
▁patience	-11.389
▁perspective	-11.389
▁persuade	-11.389
▁pregnant	-11.389
▁religion	-11.389
▁ridicule	-11.389
▁significance	-11.389
▁simulat	-11.389
▁smooth	-11.389
▁squeeze	-11.389
▁squirm	-11.389
▁storytelling	-11.389
▁subsequent	-11.389
▁travesty	-11.389
▁unnatural	-11.389
▁untalented	-11.389
▁whereabouts	-11.389
▁yesterday	-11.389
Predator	-11.389
í	-11.389
▁Hamilton	-11.389
▁Hubert	-11.389
▁Jonathan	-11.389
▁LTL	-11.389
▁Lambs	-11.389
▁POW	-11.389
▁Snider	-11.389
▁Sunday	-11.389
▁education	-11.389
▁fodder	-11.389
▁mediocrity	-11.389
▁ocean	-11.389
▁parallel	-11.389
▁qualify	-11.389
▁serving	-11.389
▁stylish	-11.389
▁Gerda	-11.389
▁Hughes	-11.389
▁Writer	-11.389
▁babies	-11.389
▁concert	-11.389
▁dreary	-11.389
▁exotic	-11.389
▁hokey	-11.389
▁insanity	-11.389
▁nominated	-11.389
▁Classic	-11.389
▁Machine	-11.389
▁demise	-11.389
▁guide	-11.389
▁obsessi	-11.389
Raymond	-11.389
▁Foster	-11.389
▁Slayer	-11.389
▁commentator	-11.389
▁sustain	-11.389
▁/>3/10	-11.389
▁Drake	-11.389
▁Pryor	-11.389
▁honor	-11.389
▁maniac	-11.389
▁Dawn	-11.389
▁Jeffrey	-11.389
▁garage	-11.389
▁gentle	-11.389
▁glorifi	-11.389
▁visible	-11.389
▁Scout	-11.389
▁Republicans	-11.389
▁glaring	-11.389
▁limitations	-11.389
▁Dallas	-11.389
▁pervert	-11.389
▁stomp	-11.389
▁Weird	-11.389
▁region	-11.389
▁ABC	-11.389
▁extensi	-11.389
▁lookalike	-11.389
▁medium	-11.389
▁turd	-11.389
provoking	-11.389
▁convert	-11.389
▁harass	-11.389
▁infect	-11.389
▁loyal	-11.389
▁volume	-11.389
▁Busey	-11.389
▁Hayes	-11.389
▁mechanical	-11.389
▁babes	-11.389
▁inherit	-11.389
▁Martel	-11.389
▁yawn	-11.389
▁inconsistencies	-11.389
▁Sanders	-11.389
▁shelter	-11.389
▁Silver	-11.389
▁nightmare	-11.389
▁centre	-11.389
▁prize	-11.389
WHY	-11.389
▁claustrophobic	-11.389
▁south	-11.389
▁chore	-11.389
▁Langdon	-11.389
▁defeat	-11.389
▁ghastly	-11.389
▁Britain	-11.389
▁captain	-11.389
▁overdone	-11.389
▁slapped	-11.389
▁backwards	-11.389
▁sketch	-11.389
://	-11.389
▁overacts	-11.389
▁nerve	-11.3891
▁Tune	-11.3891
▁thankfully	-11.3891
▁Jerem	-11.3891
▁tiresome	-11.3891
▁nick	-11.3891
▁coherent	-11.3891
▁rotten	-11.3891
▁Graves	-11.3891
Crime	-11.3891
▁steer	-11.3891
▁Short	-11.3891
Stranded	-11.3891
▁Green	-11.3891
▁Definitely	-11.3891
▁Extra	-11.3891
▁Combs	-11.3891
▁Compare	-11.3891
▁chair	-11.3891
▁broad	-11.3891
▁Jewish	-11.3891
▁torment	-11.3891
▁2001	-11.3891
▁mutant	-11.3891
ODC	-11.3891
▁devil	-11.3892
▁option	-11.3892
▁tele	-11.3892
▁resemblance	-11.3892
▁Duval	-11.3892
▁wimp	-11.3892
▁promotion	-11.3892
▁Cleef	-11.3892
▁Jewel	-11.3892
▁macho	-11.3892
▁riddle	-11.3892
▁Barker	-11.3892
▁punishment	-11.3892
▁weekend	-11.3892
▁Berlin	-11.3892
▁romp	-11.3892
▁Driver	-11.3892
▁culminat	-11.3892
▁snack	-11.3892
▁leap	-11.3892
▁progressive	-11.3892
historic	-11.3892
▁missile	-11.3892
▁featurette	-11.3892
▁Bates	-11.3892
▁personalities	-11.3892
▁info	-11.3892
▁rewrite	-11.3892
▁hatred	-11.3893
▁patriot	-11.3893
▁practice	-11.3893
▁underneath	-11.3893
▁countries	-11.3893
▁gunfight	-11.3893
▁dorm	-11.3893
▁mature	-11.3894
▁waist	-11.3894
▁HBO	-11.3894
▁miracle	-11.3894
▁Lovers	-11.3894
▁liking	-11.3894
▁eight	-11.3894
▁Latin	-11.3894
▁bond	-11.3894
▁sky	-11.3895
▁hipp	-11.3895
▁nostalgia	-11.3895
Porno	-11.3895
▁pornography	-11.3895
▁ripoff	-11.3895
▁addict	-11.3895
▁hopefully	-11.3895
▁Cosgrove	-11.3895
▁Duvivier	-11.3895
▁Portuguese	-11.3895
▁Wynorski	-11.3895
▁creativity	-11.3895
▁confession	-11.3895
▁slim	-11.3895
▁Jung	-11.3896
▁proof	-11.3896
▁vol	-11.3896
▁diner	-11.3896
▁snowman	-11.3896
▁replacement	-11.3896
▁pipe	-11.3896
▁representation	-11.3896
▁psychologist	-11.3897
Hara	-11.3897
▁Davies	-11.3897
▁mold	-11.3897
▁pound	-11.3897
▁captiv	-11.3897
▁minority	-11.3898
▁fangs	-11.3898
▁stopping	-11.3898
▁Corman	-11.3899
▁Darkness	-11.3899
atomic	-11.3899
▁Asia	-11.39
▁function	-11.39
▁Four	-11.39
▁liar	-11.3901
▁behave	-11.3901
▁formulaic	-11.3901
▁Better	-11.3901
▁Hayd	-11.3901
▁Long	-11.3902
▁Karl	-11.3902
▁labor	-11.3903
▁shine	-11.3903
▁bearable	-11.3904
▁Conan	-11.3904
▁Elm	-11.3904
▁Lynn	-11.3905
▁obsessed	-11.3905
▁sophisticated	-11.3905
▁sold	-11.3905
▁Blair	-11.3905
▁Daniel	-11.3905
▁Pink	-11.3905
▁Actor	-11.3905
▁clueless	-11.3905
▁shadow	-11.3905
▁2006	-11.3905
▁lion	-11.3906
▁invade	-11.3907
▁masses	-11.3907
▁Lor	-11.3908
▁Deni	-11.3909
▁Bette	-11.3909
Furthermore	-11.3909
▁lifestyle	-11.3909
▁pig	-11.3909
▁demonic	-11.3909
▁Deep	-11.391
▁distinctly	-11.391
▁happily	-11.391
▁showdown	-11.391
▁irony	-11.3911
▁childish	-11.3911
stage	-11.3911
▁chip	-11.3912
▁Trust	-11.3912
▁crashes	-11.3913
▁bitten	-11.3914
▁caper	-11.3914
▁duo	-11.3914
▁helpful	-11.3915
▁Jost	-11.3915
▁increase	-11.3915
▁Port	-11.3915
▁Hollow	-11.3915
▁dropping	-11.3916
Jur	-11.3917
aunch	-11.3917
▁hitch	-11.3917
olph	-11.3919
▁Alice	-11.392
naught	-11.3921
▁frequently	-11.3921
▁Alas	-11.3923
▁accomplished	-11.3923
▁crushed	-11.3923
▁satisfied	-11.3924
▁darkness	-11.3925
▁FF	-11.3926
▁cris	-11.3926
▁squad	-11.3927
▁cheated	-11.3931
▁sexist	-11.3931
▁Kate	-11.3933
▁Up	-11.3934
conscious	-11.3934
▁Phil	-11.3935
▁colorful	-11.3935
▁rope	-11.3935
▁inventor	-11.3936
▁reck	-11.3937
troops	-11.3937
▁disgusted	-11.3938
▁/>2.	-11.394
▁Real	-11.3941
▁thoughtful	-11.3941
▁handled	-11.3942
ICE	-11.3942
▁Human	-11.3942
▁Consider	-11.3944
▁Myster	-11.3945
▁overwhelming	-11.3946
▁cheating	-11.3946
▁revi	-11.3946
▁dancer	-11.3946
▁rag	-11.395
▁severely	-11.3952
▁disliked	-11.3953
▁Joel	-11.3953
▁invented	-11.3953
▁/>3.	-11.3954
▁understandable	-11.3954
▁explored	-11.3955
▁Tale	-11.3955
▁Later	-11.396
▁Cold	-11.3961
▁heroin	-11.3962
▁*****	-11.3963
▁Gun	-11.3963
▁Hardy	-11.3965
▁fifty	-11.3967
▁Surely	-11.3968
ONE	-11.3968
▁Within	-11.3969
▁frontal	-11.3969
▁Burt	-11.3971
▁Sean	-11.3973
▁Rocky	-11.3974
toxic	-11.3978
▁Mont	-11.398
hav	-11.3984
rray	-11.3985
etwork	-11.3985
▁studying	-11.3986
▁billed	-11.3991
▁wounded	-11.3998
▁snapp	-11.4
▁bush	-11.4002
▁stretched	-11.4005
▁Save	-11.4006
▁spr	-11.401
▁Q	-11.4012
▁hooker	-11.4013
urban	-11.4014
▁ranting	-11.4014
▁Cap	-11.4017
phy	-11.4018
anne	-11.4021
thless	-11.4022
Broke	-11.4025
▁Bur	-11.4028
▁Hand	-11.4029
▁criticize	-11.4034
▁reverse	-11.4035
?????	-11.4036
▁claimed	-11.4039
▁wine	-11.4041
DU	-11.4042
▁complaining	-11.4058
liced	-11.4064
▁convincingly	-11.4066
▁rain	-11.4089
▁Must	-11.4091
KE	-11.4106
▁repress	-11.4113
▁Lou	-11.4115
stood	-11.4118
▁promote	-11.4118
▁grating	-11.4127
▁whoever	-11.4132
attered	-11.4136
acabr	-11.4141
5%	-11.4142
▁uniform	-11.4147
▁Bon	-11.4148
▁horn	-11.4151
▁terroriz	-11.4159
nett	-11.4187
▁bitch	-11.4191
▁Ev	-11.4207
▁escaped	-11.4209
Bloodline	-11.421
manda	-11.4264
▁gen	-11.4283
WO	-11.4289
TER	-11.429
orbid	-11.4299
ridden	-11.4299
▁Kar	-11.4306
▁Dumb	-11.4319
▁Pan	-11.4321
loria	-11.4321
▁commenter	-11.4325
ronic	-11.433
▁Spi	-11.433
▁Ker	-11.4333
▁Jur	-11.4338
ssassination	-11.436
▁pose	-11.4363
cloth	-11.4364
▁dat	-11.4374
lways	-11.4375
▁preferr	-11.4375
licate	-11.4378
▁Wallac	-11.438
▁Baron	-11.4384
duty	-11.4386
46	-11.4393
▁mut	-11.4425
uddy	-11.4425
Blu	-11.4431
ulent	-11.4434
atroni	-11.4441
▁grim	-11.4447
▁Gh	-11.4447
▁incapa	-11.4456
panic	-11.4462
did	-11.4463
▁quarter	-11.4464
▁Core	-11.4466
anni	-11.4477
cine	-11.448
UL	-11.4487
eets	-11.4529
▁remark	-11.4538
OUT	-11.4562
Bar	-11.4565
▁gap	-11.4579
▁Mid	-11.4585
once	-11.4604
rip	-11.4616
▁Ask	-11.4626
▁skipp	-11.463
▁litera	-11.4631
▁har	-11.4634
wal	-11.4664
llows	-11.4666
finitely	-11.4668
IST	-11.4674
▁span	-11.4677
unny	-11.468
▁revolv	-11.4704
▁Trac	-11.4718
▁Roman	-11.4754
▁bug	-11.4783
▁2000	-11.4807
▁prop	-11.4813
rock	-11.4865
▁plac	-11.4891
▁tan	-11.4896
otte	-11.494
RED	-11.4948
25	-11.4958
▁clo	-11.4977
▁Act	-11.4984
TH	-11.4988
▁operati	-11.5005
▁JU	-11.5007
▁WE	-11.5035
▁24	-11.5061
▁equ	-11.5094
uel	-11.5105
!!!!!	-11.5127
▁Run	-11.5128
ambo	-11.5129
sync	-11.5137
▁Fair	-11.5157
▁grip	-11.5181
dication	-11.5193
tube	-11.5228
▁blam	-11.5238
dela	-11.525
orton	-11.5271
▁preview	-11.5276
▁gut	-11.5278
▁Brook	-11.5278
cross	-11.5289
14	-11.5297
olished	-11.5298
Lock	-11.5315
▁arrange	-11.5326
generated	-11.5337
alance	-11.5339
▁sale	-11.535
ume	-11.5352
▁civil	-11.5364
▁lip	-11.5371
▁chop	-11.5379
will	-11.5399
▁(197	-11.5407
▁ignor	-11.5422
stead	-11.5438
erotic	-11.544
▁cheat	-11.5443
look	-11.5451
elected	-11.5463
▁(200	-11.5466
blo	-11.5469
▁numb	-11.5473
▁flip	-11.5474
tile	-11.5478
▁bow	-11.5483
▁mode	-11.5484
$	-11.5485
▁argu	-11.5485
cream	-11.5486
▁organ	-11.5487
▁overwhelm	-11.5491
Doctor	-11.5492
Consider	-11.5493
Later	-11.5493
Thank	-11.5494
Meanwhile	-11.5494
quirky	-11.5494
ERE	-11.5495
Basically	-11.5495
Probably	-11.5495
Plan	-11.5495
Seriously	-11.5495
numbers	-11.5496
standard	-11.5496
Yeah	-11.5496
yeah	-11.5496
George	-11.5497
Richard	-11.5497
2/10	-11.5497
perhaps	-11.5497
Hollywood	-11.5497
despi	-11.5497
character	-11.5497
because	-11.5497
people	-11.5497
after	-11.5497
God	-11.5497
serious	-11.5498
production	-11.5498
balance	-11.5499
Instead	-11.5499
Very	-11.5501
change	-11.5503
Every	-11.5503
▁shout	-11.5505
flick	-11.5506
insert	-11.5506
▁aesthetic	-11.551
throw	-11.551
half	-11.5512
▁dang	-11.5517
camera	-11.5518
▁frequent	-11.5519
▁eventual	-11.5522
Never	-11.5522
▁Davi	-11.5523
ALLY	-11.5523
▁craze	-11.5525
▁ultimate	-11.5527
kick	-11.553
▁femini	-11.5532
▁sen	-11.554
mostly	-11.5542
Sex	-11.5542
▁abduct	-11.5542
▁studi	-11.5543
▁Mario	-11.5545
WAY	-11.5545
▁Under	-11.5548
xperts	-11.5549
▁symbol	-11.5549
▁liber	-11.555
▁alcohol	-11.5553
▁Lind	-11.5553
imaginative	-11.5554
lockbuster	-11.5554
etween	-11.5554
stitute	-11.5554
>	-11.5555
aranormal	-11.5555
pick	-11.5556
omebody	-11.5556
▁Rubin	-11.5556
▁cigar	-11.5556
▁exorcis	-11.5556
▁humiliat	-11.5556
▁razor	-11.5556
Airplane	-11.5556
Dungeon	-11.5556
HEART	-11.5556
RATING	-11.5556
achieving	-11.5556
deliberate	-11.5556
magnificent	-11.5556
sarcasm	-11.5556
utobiography	-11.5556
▁1987	-11.5556
▁Academy	-11.5556
▁Almodovar	-11.5556
▁Arizona	-11.5556
▁Basterds	-11.5556
▁Broadway	-11.5556
▁Colonel	-11.5556
▁Complete	-11.5556
▁Concorde	-11.5556
▁Democrat	-11.5556
▁Dietrich	-11.5556
▁Fantasy	-11.5556
▁Gabriel	-11.5556
▁Galaxy	-11.5556
▁Griffith	-11.5556
▁HORROR	-11.5556
▁Jacob	-11.5556
▁Lupino	-11.5556
▁MAGOO	-11.5556
▁Manhattan	-11.5556
▁Matrix	-11.5556
▁Miranda	-11.5556
▁Naturally	-11.5556
▁Netflix	-11.5556
▁SHOW	-11.5556
▁Samantha	-11.5556
▁Shepherd	-11.5556
▁Spears	-11.5556
▁Spiderman	-11.5556
▁Sutherland	-11.5556
▁Sylvi	-11.5556
▁Thompson	-11.5556
▁Treadwell	-11.5556
▁Underdog	-11.5556
▁VILLA	-11.5556
▁Waverly	-11.5556
▁advantage	-11.5556
▁bridge	-11.5556
▁censor	-11.5556
▁chemical	-11.5556
▁companies	-11.5556
▁compliment	-11.5556
▁contrary	-11.5556
▁corridor	-11.5556
▁disastrous	-11.5556
▁disregard	-11.5556
▁dynamic	-11.5556
▁empathy	-11.5556
▁eternity	-11.5556
▁ethnic	-11.5556
▁exhibit	-11.5556
▁exterior	-11.5556
▁fiasco	-11.5556
▁fortunate	-11.5556
▁grieving	-11.5556
▁ingredients	-11.5556
▁injury	-11.5556
▁intimidat	-11.5556
▁irrelevant	-11.5556
▁kitchen	-11.5556
▁league	-11.5556
▁lovable	-11.5556
▁manipulated	-11.5556
▁misleading	-11.5556
▁misunderstand	-11.5556
▁monologue	-11.5556
▁neighborhood	-11.5556
▁orphanage	-11.5556
▁philosophy	-11.5556
▁pleasing	-11.5556
▁predecessor	-11.5556
▁prejudice	-11.5556
▁preparation	-11.5556
▁professor	-11.5556
▁prominent	-11.5556
▁proportions	-11.5556
▁register	-11.5556
▁resolution	-11.5556
▁screech	-11.5556
▁sensitive	-11.5556
▁sloppi	-11.5556
▁snooze	-11.5556
▁sorority	-11.5556
▁strateg	-11.5556
▁stunned	-11.5556
▁substanti	-11.5556
▁suicidal	-11.5556
▁supreme	-11.5556
▁synopsis	-11.5556
▁tattoo	-11.5556
▁tepid	-11.5556
▁territory	-11.5556
▁triangle	-11.5556
▁undeveloped	-11.5556
▁unlikable	-11.5556
▁unnecessarily	-11.5556
▁vessel	-11.5556
▁voyage	-11.5556
▁'80	-11.5556
▁Alpha	-11.5556
▁Bihn	-11.5556
▁Field	-11.5556
▁Margera	-11.5556
▁NBC	-11.5556
▁NYC	-11.5556
▁Weapon	-11.5556
▁basket	-11.5556
▁buzz	-11.5556
▁condemn	-11.5556
▁feeble	-11.5556
▁hackneyed	-11.5556
▁imprison	-11.5556
▁prequel	-11.5556
▁shield	-11.5556
▁sinister	-11.5556
▁spiral	-11.5556
▁supply	-11.5556
▁triumph	-11.5556
fetched	-11.5556
hipwreck	-11.5556
▁/>1/10	-11.5556
▁Cheerlead	-11.5556
▁Everett	-11.5556
▁Glenn	-11.5556
▁Hudson	-11.5556
▁MGM	-11.5556
▁Pierce	-11.5556
▁Sandler	-11.5556
▁Shatner	-11.5556
▁Tucker	-11.5556
▁dedicate	-11.5556
▁rapidly	-11.5556
-16	-11.5556
PLUMP	-11.5556
▁Brando	-11.5556
▁choreograph	-11.5556
▁crippl	-11.5556
▁delightful	-11.5556
▁gritty	-11.5556
▁Ollie	-11.5556
▁identify	-11.5556
▁request	-11.5556
zzle	-11.5557
▁MIAs	-11.5557
▁civilians	-11.5557
▁devour	-11.5557
▁Welch	-11.5557
▁dawn	-11.5557
▁litter	-11.5557
▁pride	-11.5557
▁qualifie	-11.5557
▁mayhem	-11.5557
▁fetish	-11.5557
▁marvel	-11.5557
▁Radu	-11.5557
▁clinic	-11.5557
▁Cream	-11.5557
▁Brain	-11.5557
▁Carrot	-11.5557
▁Ellen	-11.5557
▁Until	-11.5557
▁disabled	-11.5557
▁magn	-11.5557
▁vengeance	-11.5557
▁havoc	-11.5557
▁demonstrat	-11.5557
▁heaven	-11.5557
▁dismal	-11.5557
▁flames	-11.5557
▁hysterical	-11.5557
▁portal	-11.5557
!!!!!!!!!!!!	-11.5557
▁beware	-11.5557
▁concoct	-11.5557
▁ensure	-11.5557
▁rampa	-11.5557
▁ladies	-11.5557
elusion	-11.5557
▁auteur	-11.5557
MAKE	-11.5557
▁darn	-11.5557
Legend	-11.5557
motivated	-11.5557
▁Aaron	-11.5557
▁rude	-11.5557
▁stairs	-11.5557
▁depart	-11.5557
▁Forget	-11.5557
▁Anderson	-11.5557
▁embrace	-11.5557
▁Irving	-11.5557
▁facility	-11.5557
▁miniseries	-11.5557
▁mutilat	-11.5557
▁narcissistic	-11.5557
Enough	-11.5557
lusive	-11.5557
▁sample	-11.5557
▁Curry	-11.5557
▁Tell	-11.5557
▁rising	-11.5557
▁meteor	-11.5557
▁Adventure	-11.5557
▁blessing	-11.5557
▁grandfather	-11.5557
▁Morris	-11.5557
▁cloning	-11.5557
▁divide	-11.5557
▁straightforward	-11.5557
▁Simple	-11.5557
▁birthday	-11.5557
▁shift	-11.5557
oyote	-11.5557
▁Wesley	-11.5557
▁employee	-11.5557
▁afterwards	-11.5557
▁Wild	-11.5557
.99	-11.5557
▁Serb	-11.5558
▁blew	-11.5558
▁cobbl	-11.5558
▁2008	-11.5558
▁summarize	-11.5558
▁humble	-11.5558
communist	-11.5558
hhh	-11.5558
palace	-11.5558
▁hammy	-11.5558
▁spiritual	-11.5558
▁enlist	-11.5558
roopers	-11.5558
▁depressed	-11.5558
▁ambigu	-11.5558
▁electricity	-11.5558
▁pathos	-11.5558
▁2005	-11.5558
▁imitation	-11.5558
▁swamp	-11.5558
▁Spike	-11.5558
▁baseball	-11.5558
▁Train	-11.5558
▁Clint	-11.5558
Hulk	-11.5559
▁Warren	-11.5559
▁Brink	-11.5559
▁Pleasence	-11.5559
▁airport	-11.5559
▁Demons	-11.5559
▁fond	-11.5559
nterrupted	-11.5559
▁Bava	-11.5559
▁unfair	-11.5559
▁mount	-11.5559
▁occurred	-11.5559
▁whiny	-11.5559
▁firing	-11.5559
▁reprise	-11.5559
▁timing	-11.5559
damaged	-11.5559
▁gunshot	-11.5559
▁collective	-11.5559
▁strive	-11.5559
▁Nicholas	-11.556
▁Reality	-11.556
▁charismatic	-11.556
▁auto	-11.556
▁sappy	-11.556
▁$3	-11.556
▁observation	-11.556
▁GOD	-11.556
▁vital	-11.556
▁paranoia	-11.556
▁Howell	-11.556
▁limp	-11.556
▁alcoholic	-11.556
▁arouse	-11.556
▁thrust	-11.556
▁Zellweger	-11.556
antastic	-11.556
▁chuckle	-11.5561
▁Everest	-11.5561
▁unremarkable	-11.5561
▁modest	-11.5561
▁Hope	-11.5561
▁Mind	-11.5561
▁fluff	-11.5562
▁property	-11.5562
▁zone	-11.5562
▁linger	-11.5562
▁debat	-11.5562
▁flair	-11.5562
▁stress	-11.5562
▁loop	-11.5562
▁baddies	-11.5562
▁cohesive	-11.5562
▁tax	-11.5563
▁poker	-11.5563
▁Elam	-11.5563
▁McConaughey	-11.5563
▁operation	-11.5563
▁Schwarzenegger	-11.5563
Simply	-11.5563
▁Alba	-11.5563
▁considerably	-11.5563
▁involvement	-11.5563
▁Mummy	-11.5564
▁Sara	-11.5564
▁Leland	-11.5564
▁arrival	-11.5564
▁sadistic	-11.5564
▁Jay	-11.5564
NSA	-11.5565
▁tail	-11.5565
lsen	-11.5565
▁Grand	-11.5565
▁winner	-11.5565
▁Shaw	-11.5566
▁Fire	-11.5566
▁sentimental	-11.5566
▁Sweden	-11.5566
▁International	-11.5566
▁gum	-11.5567
▁Prince	-11.5567
▁bald	-11.5567
▁maintain	-11.5568
▁illness	-11.5568
▁Willis	-11.5568
▁Light	-11.5568
▁payoff	-11.5569
▁patch	-11.5569
▁grant	-11.5569
▁Kong	-11.557
▁Goodman	-11.557
▁applaud	-11.5572
▁unreal	-11.5572
▁Body	-11.5572
incarnat	-11.5572
▁tv	-11.5572
▁iron	-11.5572
▁Tea	-11.5573
▁momentum	-11.5573
▁engineer	-11.5574
▁intro	-11.5574
unior	-11.5574
▁spice	-11.5574
▁WARNING	-11.5574
▁Mongolian	-11.5574
▁Nobody	-11.5574
▁Steiger	-11.5574
▁Scarlett	-11.5574
▁Vacation	-11.5574
▁pistol	-11.5574
▁sexuality	-11.5574
▁Ernest	-11.5574
▁Office	-11.5575
▁soph	-11.5575
▁Dante	-11.5575
▁scarie	-11.5575
elite	-11.5575
▁terrifying	-11.5575
▁Hank	-11.5575
▁torn	-11.5575
▁sneak	-11.5575
▁cleverness	-11.5576
▁vice	-11.5576
▁Vince	-11.5576
▁minus	-11.5576
▁Today	-11.5576
ACT	-11.5577
does	-11.5577
Conclusion	-11.5577
vious	-11.5577
▁traditional	-11.5577
▁advertised	-11.5577
▁flashes	-11.5578
▁Harrison	-11.5578
▁meantime	-11.5578
hiding	-11.5579
▁assure	-11.5579
▁Herman	-11.558
▁resolved	-11.558
▁overacting	-11.558
two	-11.558
▁Rich	-11.5581
▁35	-11.5583
▁harm	-11.5585
▁jealousy	-11.5586
▁Chil	-11.5586
▁overlong	-11.5587
▁Coen	-11.5587
▁dement	-11.5588
▁insightful	-11.5588
▁dragon	-11.5589
▁update	-11.5589
▁belt	-11.5589
▁Fisher	-11.559
▁crazed	-11.559
▁Rip	-11.559
▁Terry	-11.559
▁greedy	-11.559
▁beaten	-11.5591
▁GO	-11.5591
▁JP	-11.5592
▁outcast	-11.5595
▁Werewol	-11.5596
▁sur	-11.5596
▁/>4.	-11.5596
▁improvise	-11.5601
▁adequately	-11.5601
daring	-11.5601
▁cancer	-11.5602
▁justified	-11.5603
▁Anth	-11.5604
▁22	-11.5607
▁fist	-11.5607
▁Rent	-11.5608
lving	-11.5609
▁stereotyped	-11.5609
EG	-11.5609
▁Armageddon	-11.561
Silv	-11.5612
▁initially	-11.5615
simil	-11.5615
▁Nest	-11.5615
▁True	-11.5615
▁anyhow	-11.5616
▁crosses	-11.5617
▁tuned	-11.562
▁Doctor	-11.5621
also	-11.5621
▁Gray	-11.5623
▁surfer	-11.5624
▁philosophi	-11.5626
▁participate	-11.5626
▁argue	-11.5628
▁butcher	-11.5634
dispute	-11.5635
▁Cry	-11.5637
▁hyped	-11.5637
▁Fle	-11.5639
▁refugee	-11.564
▁hatch	-11.5641
▁Away	-11.5641
guy	-11.5641
▁physically	-11.5643
▁Party	-11.5644
▁linear	-11.5648
ku	-11.5648
▁TR	-11.565
emic	-11.5655
▁tag	-11.5656
▁hitting	-11.5656
▁abused	-11.5662
▁Kay	-11.5663
▁appreciati	-11.5664
▁numbing	-11.5665
afia	-11.5677
▁alas	-11.5679
consci	-11.5679
▁Indiana	-11.5683
Miche	-11.5689
remarkable	-11.5691
▁wishes	-11.5691
Secretary	-11.5692
lop	-11.5692
▁tease	-11.5705
▁closer	-11.5707
VEN	-11.5711
▁fuzz	-11.5714
▁hurr	-11.5723
▁asses	-11.5724
▁driven	-11.5731
!?!	-11.5732
▁stake	-11.5734
aka	-11.5742
earing	-11.5753
▁Osa	-11.5776
▁junkie	-11.5777
▁Mol	-11.5788
blade	-11.5794
ré	-11.5794
▁surrealis	-11.5822
▁seduc	-11.5826
▁verg	-11.5831
▁filler	-11.5839
▁Killer	-11.5846
▁miner	-11.585
▁archiv	-11.5852
▁trucker	-11.5869
▁Witch	-11.5869
create	-11.5876
estination	-11.5887
▁participat	-11.5887
Godfather	-11.5935
breaking	-11.5936
xter	-11.5942
▁Ver	-11.595
▁prov	-11.5953
llies	-11.5961
EW	-11.5964
qua	-11.5964
▁nav	-11.5967
businessmen	-11.5967
itto	-11.5979
arren	-11.5989
▁Vice	-11.605
▁bla	-11.606
Hav	-11.6073
post	-11.6088
▁abusi	-11.6089
drum	-11.61
▁axe	-11.6126
▁mish	-11.6155
▁bone	-11.6162
valu	-11.6177
vocati	-11.6182
Dan	-11.6186
Admittedly	-11.6197
▁unemploy	-11.6216
AMA	-11.6216
▁tortur	-11.6224
lding	-11.6246
big	-11.6252
▁shad	-11.6265
TOO	-11.6267
▁compet	-11.6292
onda	-11.6332
▁react	-11.6366
loud	-11.6371
▁camper	-11.639
▁adventur	-11.6407
onnie	-11.6424
▁suburb	-11.644
▁infinite	-11.6528
VE	-11.6547
▁translat	-11.6582
OME	-11.6594
36	-11.66
▁elevat	-11.6635
INE	-11.6655
bait	-11.6699
▁compete	-11.673
▁Total	-11.673
merge	-11.6733
▁math	-11.6735
Soul	-11.6745
▁coma	-11.6759
▁packag	-11.6762
clear	-11.6776
▁Um	-11.6786
Tar	-11.6818
dmittedly	-11.683
lumber	-11.6843
▁mute	-11.6852
▁stab	-11.688
▁unde	-11.689
icles	-11.6898
▁Wall	-11.6909
▁List	-11.6912
▁Gil	-11.6975
▁Harp	-11.6989
▁Leo	-11.6995
▁Budd	-11.7013
mash	-11.7015
▁Assassin	-11.7091
▁crapp	-11.7134
▁mil	-11.7171
moving	-11.7181
▁Burn	-11.7181
mont	-11.7199
▁mop	-11.7212
▁distr	-11.7238
▁error	-11.7271
▁bullet	-11.7275
▁folk	-11.728
▁$10	-11.7281
▁buck	-11.7293
▁Victor	-11.7304
See	-11.7308
ffect	-11.7362
12	-11.7369
▁193	-11.739
▁Secret	-11.7393
Pro	-11.74
▁1000	-11.7405
military	-11.7414
probably	-11.7427
lika	-11.743
ddler	-11.7434
Cow	-11.7448
rgen	-11.7455
82	-11.7466
▁Marti	-11.7471
Fall	-11.7472
▁arrogan	-11.7472
▁stumbl	-11.7476
pathetic	-11.748
▁Chi	-11.7482
write	-11.7486
▁battl	-11.7487
▁smil	-11.7491
Armageddon	-11.7492
original	-11.7493
Human	-11.7493
craft	-11.7493
Hellraiser	-11.7493
cheek	-11.7494
Lost	-11.7494
Besides	-11.7494
experienced	-11.7494
writer	-11.7495
Otherwise	-11.7495
Friday	-11.7495
Blood	-11.7496
drama	-11.7496
actresses	-11.7496
People	-11.7496
familiar	-11.7496
plus	-11.7496
focus	-11.7496
Black	-11.7496
William	-11.7496
Despi	-11.7496
language	-11.7496
Everything	-11.7497
Scott	-11.7497
Peter	-11.7497
amount	-11.7497
David	-11.7497
okay	-11.7497
James	-11.7497
average	-11.7497
except	-11.7497
space	-11.7497
cake	-11.7497
child	-11.7497
complete	-11.7497
figure	-11.7497
House	-11.7497
twist	-11.7497
second	-11.7497
Nothing	-11.7497
different	-11.7497
terrible	-11.7497
power	-11.7497
stories	-11.7497
earth	-11.7497
great	-11.7497
feel	-11.7498
genre	-11.7498
justice	-11.7498
credit	-11.7498
▁ghouli	-11.7499
important	-11.7499
particularly	-11.7499
again	-11.7501
Director	-11.7501
ifying	-11.7502
count	-11.7503
Which	-11.7505
onald	-11.7506
human	-11.7506
turn	-11.7507
45	-11.7507
Eric	-11.7508
▁crush	-11.7509
▁retard	-11.7509
15	-11.7511
eeming	-11.7513
▁profession	-11.7514
▁accomplish	-11.7514
huh	-11.7514
personal	-11.7514
level	-11.7517
End	-11.7518
▁inspire	-11.7525
cool	-11.7528
clusion	-11.753
▁quirk	-11.7533
▁Woo	-11.7534
▁slash	-11.7534
▁Russia	-11.7535
thank	-11.7539
hour	-11.7549
▁mirac	-11.7551
▁Harris	-11.7552
▁Nichol	-11.7553
zzie	-11.7553
Mary	-11.7553
▁fruit	-11.7553
▁cook	-11.7554
ranged	-11.7554
▁differ	-11.7554
▁practi	-11.7555
nosaur	-11.7556
attering	-11.7556
▁comprehen	-11.7556
▁respons	-11.7556
▁stereo	-11.7556
▁smug	-11.7556
▁plod	-11.7556
▁(198	-11.7556
▁Execut	-11.7556
▁Gedren	-11.7556
▁vulgar	-11.7556
2:37	-11.7556
Caribbean	-11.7556
DeCoteau	-11.7556
Django	-11.7556
Professor	-11.7556
Shuttle	-11.7556
enobites	-11.7556
esquire	-11.7556
excusable	-11.7556
ndependence	-11.7556
squid	-11.7556
▁1991	-11.7556
▁1994	-11.7556
▁Affleck	-11.7556
▁Anthara	-11.7556
▁BLOOD	-11.7556
▁Baldwin	-11.7556
▁Beauty	-11.7556
▁Belushi	-11.7556
▁Castro	-11.7556
▁Children	-11.7556
▁Claibourne	-11.7556
▁Coburn	-11.7556
▁Crisp	-11.7556
▁Dangerfield	-11.7556
▁Detective	-11.7556
▁Dylan	-11.7556
▁Englund	-11.7556
▁FOX	-11.7556
▁Generation	-11.7556
▁IMDB	-11.7556
▁Isobel	-11.7556
▁Jamaica	-11.7556
▁Keira	-11.7556
▁Kentucky	-11.7556
▁Kilmer	-11.7556
▁Knautz	-11.7556
▁Lopez	-11.7556
▁Lorelei	-11.7556
▁Merchant	-11.7556
▁Mirren	-11.7556
▁PLOT	-11.7556
▁Paxton	-11.7556
▁Perkins	-11.7556
▁Puppet	-11.7556
▁Python	-11.7556
▁Quigley	-11.7556
▁Radzoff	-11.7556
▁Ritchie	-11.7556
▁STUPID	-11.7556
▁Samurai	-11.7556
▁Scotland	-11.7556
▁Stefan	-11.7556
▁Studios	-11.7556
▁Tenchi	-11.7556
▁Thornton	-11.7556
▁Tilney	-11.7556
▁Veronica	-11.7556
▁Vittoria	-11.7556
▁Wurtzel	-11.7556
▁ZERO	-11.7556
▁abundan	-11.7556
▁activities	-11.7556
▁altogether	-11.7556
▁analysis	-11.7556
▁barbershop	-11.7556
▁bartender	-11.7556
▁behaviour	-11.7556
▁biography	-11.7556
▁biopic	-11.7556
▁botched	-11.7556
▁campaign	-11.7556
▁centuries	-11.7556
▁circuit	-11.7556
▁circus	-11.7556
▁colonel	-11.7556
▁communicate	-11.7556
▁contradict	-11.7556
▁cyborg	-11.7556
▁debacle	-11.7556
▁default	-11.7556
▁definition	-11.7556
▁depression	-11.7556
▁desperation	-11.7556
▁discipline	-11.7556
▁distasteful	-11.7556
▁ensemble	-11.7556
▁entitled	-11.7556
▁exaggerated	-11.7556
▁exaggerating	-11.7556
▁exclusive	-11.7556
▁extraordinary	-11.7556
▁fabulous	-11.7556
▁gigantic	-11.7556
▁grandmother	-11.7556
▁guerrilla	-11.7556
▁gymnastics	-11.7556
▁gypsy	-11.7556
▁homophobic	-11.7556
▁immense	-11.7556
▁inferior	-11.7556
▁innocence	-11.7556
▁insomnia	-11.7556
▁irreveren	-11.7556
▁journalist	-11.7556
▁lethargic	-11.7556
▁luxury	-11.7556
▁meltdown	-11.7556
▁merciless	-11.7556
▁monotone	-11.7556
▁monotonous	-11.7556
▁monstrosity	-11.7556
▁monstrous	-11.7556
▁neighbour	-11.7556
▁nemesis	-11.7556
▁occult	-11.7556
▁overbearing	-11.7556
▁permanent	-11.7556
▁perverse	-11.7556
▁rabbit	-11.7556
▁reappear	-11.7556
▁redneck	-11.7556
▁redundan	-11.7556
▁refreshing	-11.7556
▁rehearsal	-11.7556
▁retrieve	-11.7556
▁revolt	-11.7556
▁sarcastic	-11.7556
▁savage	-11.7556
▁schtick	-11.7556
▁silence	-11.7556
▁sluggish	-11.7556
▁smirk	-11.7556
▁solution	-11.7556
▁stagecoach	-11.7556
▁sublime	-11.7556
▁submarine	-11.7556
▁sufficient	-11.7556
▁supermarket	-11.7556
▁syrup	-11.7556
▁treasure	-11.7556
▁unanswered	-11.7556
▁unattractive	-11.7556
▁underdeveloped	-11.7556
▁unfaithful	-11.7556
▁unforgivable	-11.7556
▁voyeuristic	-11.7556
▁wheelchair	-11.7556
▁wretched	-11.7556
▁Bernard	-11.7556
▁Language	-11.7556
▁Wolf	-11.7556
▁Wrong	-11.7556
▁Zealand	-11.7556
▁aggravat	-11.7556
▁airplane	-11.7556
▁companion	-11.7556
▁draft	-11.7556
▁electrocut	-11.7556
▁implied	-11.7556
▁intensity	-11.7556
▁karate	-11.7556
▁muscle	-11.7556
▁neglect	-11.7556
▁optimis	-11.7556
▁potato	-11.7556
▁splash	-11.7556
▁transition	-11.7556
▁uncover	-11.7556
ç	-11.7556
▁Boorman	-11.7556
▁Cushing	-11.7556
▁Nightmare	-11.7556
▁Saddam	-11.7556
▁Stereotypes	-11.7556
▁WHI	-11.7556
▁Watson	-11.7556
▁buffoon	-11.7556
▁disintegrat	-11.7556
▁essence	-11.7556
▁finance	-11.7556
▁goddess	-11.7556
▁nonetheless	-11.7556
▁nurse	-11.7556
▁reserve	-11.7556
▁smack	-11.7556
▁whack	-11.7556
▁yourselves	-11.7556
▁Edison	-11.7556
▁abortion	-11.7556
▁session	-11.7556
▁vocal	-11.7556
▁Muller	-11.7556
▁Squad	-11.7556
▁Sterling	-11.7556
▁Tramp	-11.7556
▁hitchhik	-11.7556
▁sprinkl	-11.7556
Clearly	-11.7557
STORY	-11.7557
▁Spirit	-11.7557
▁Wisdom	-11.7557
▁mysteries	-11.7557
▁warrant	-11.7557
▁wicked	-11.7557
▁Thanksgiving	-11.7557
▁chomp	-11.7557
▁morph	-11.7557
▁aftermath	-11.7557
▁aimlessly	-11.7557
▁dentist	-11.7557
▁slob	-11.7557
▁spoon	-11.7557
Yesterday	-11.7557
▁Carrell	-11.7557
▁daily	-11.7557
▁library	-11.7557
▁Destiny	-11.7557
▁Drama	-11.7557
▁limb	-11.7557
▁restrain	-11.7557
▁Emma	-11.7557
Empire	-11.7557
construction	-11.7557
▁Agent	-11.7557
▁Burrough	-11.7557
▁Hearst	-11.7557
▁Peak	-11.7557
▁deaf	-11.7557
▁enrage	-11.7557
▁euro	-11.7557
zza	-11.7557
▁Susan	-11.7557
▁Douglas	-11.7557
▁eyeballs	-11.7557
▁honey	-11.7557
▁Dream	-11.7557
▁gush	-11.7557
▁steady	-11.7557
▁LOVE	-11.7557
▁shuttle	-11.7557
▁Carell	-11.7557
▁distant	-11.7557
▁plodding	-11.7557
hastly	-11.7557
▁enhanc	-11.7557
▁Betty	-11.7557
▁faint	-11.7557
▁exceed	-11.7557
Robocop	-11.7557
▁futile	-11.7557
▁hesitate	-11.7557
▁Faye	-11.7557
▁estate	-11.7557
▁domain	-11.7557
▁witchcraft	-11.7557
▁$$	-11.7557
▁reign	-11.7557
▁acknowledge	-11.7557
▁Left	-11.7557
▁literature	-11.7557
▁distress	-11.7557
▁Hawk	-11.7557
▁believability	-11.7557
▁revolution	-11.7557
▁Pear	-11.7557
▁captor	-11.7557
▁quantit	-11.7557
▁scoring	-11.7557
▁underscore	-11.7557
▁forehead	-11.7557
▁idol	-11.7557
▁moderate	-11.7557
▁carniv	-11.7557
▁CSI	-11.7557
▁Gosling	-11.7557
▁audition	-11.7557
▁Butchers	-11.7557
▁Southern	-11.7557
illusion	-11.7557
▁terminal	-11.7557
▁Hopefully	-11.7557
▁preced	-11.7557
▁Bryan	-11.7557
▁Cannes	-11.7557
▁defense	-11.7557
▁Bennett	-11.7557
▁Chains	-11.7557
▁Gregory	-11.7557
▁Republic	-11.7557
cclaimed	-11.7557
▁hollow	-11.7557
▁expensive	-11.7557
▁justify	-11.7557
▁contract	-11.7557
▁Darwin	-11.7557
▁sulk	-11.7557
▁uptight	-11.7558
▁uglie	-11.7558
▁tagline	-11.7558
▁Carolina	-11.7558
▁ignorance	-11.7558
▁flood	-11.7558
▁Bergen	-11.7558
▁dripp	-11.7558
undercover	-11.7558
▁profound	-11.7558
WTF	-11.7558
▁Grier	-11.7558
▁2004	-11.7558
▁shining	-11.7558
▁Civi	-11.7558
▁staple	-11.7558
▁1933	-11.7558
▁lunch	-11.7558
▁Spain	-11.7558
▁secure	-11.7558
fathom	-11.7558
▁predat	-11.7558
▁outrage	-11.7558
▁jean	-11.7558
▁groom	-11.7558
▁improbable	-11.7558
▁Patricia	-11.7558
▁bedroom	-11.7558
▁erupt	-11.7559
▁alarm	-11.7559
▁poison	-11.7559
▁Popp	-11.7559
▁hoot	-11.7559
▁yellow	-11.7559
▁kung	-11.7559
▁Bradley	-11.7559
▁strut	-11.7559
▁lyric	-11.7559
Snake	-11.7559
▁discount	-11.7559
▁Midian	-11.7559
▁pressure	-11.7559
venue	-11.7559
▁Gamera	-11.7559
▁dough	-11.7559
▁underwear	-11.7559
▁staff	-11.7559
▁authorities	-11.7559
▁roof	-11.7559
▁paranormal	-11.7559
▁Valley	-11.7559
ivated	-11.7559
▁Lauren	-11.7559
▁angst	-11.756
▁kidding	-11.756
▁Moreover	-11.756
Harlem	-11.756
▁"1"	-11.756
▁slide	-11.756
▁cavemen	-11.756
▁HOW	-11.756
▁Cassi	-11.756
▁Laden	-11.756
▁canvas	-11.756
▁cringing	-11.756
▁panties	-11.756
valent	-11.756
▁Baker	-11.756
▁Kingdom	-11.756
▁echo	-11.756
▁raving	-11.7561
ULL	-11.7561
▁slack	-11.7561
▁Dilly	-11.7561
▁Outside	-11.7561
▁melodramatic	-11.7561
▁jury	-11.7561
▁Judge	-11.7561
▁barney	-11.7561
▁mankind	-11.7562
▁confrontation	-11.7562
Break	-11.7562
▁shotgun	-11.7562
▁breathtaking	-11.7562
▁unimaginative	-11.7562
▁Swain	-11.7562
▁Giant	-11.7563
▁skimp	-11.7563
▁masterful	-11.7563
▁Shiban	-11.7563
▁LOT	-11.7563
bury	-11.7563
▁symbolic	-11.7564
▁drumm	-11.7564
▁Frankie	-11.7564
▁imagery	-11.7565
▁Foreigner	-11.7565
▁lightning	-11.7565
▁bombard	-11.7565
oggi	-11.7565
▁mentality	-11.7565
▁consistent	-11.7565
▁SCI	-11.7565
▁Milian	-11.7565
▁nit	-11.7566
▁Jew	-11.7566
▁stash	-11.7566
▁Burton	-11.7566
▁poop	-11.7566
▁earnest	-11.7566
▁adaption	-11.7566
▁Loren	-11.7567
▁Udo	-11.7567
▁letdown	-11.7567
▁Sunny	-11.7567
▁EVERY	-11.7567
▁surge	-11.7568
Amato	-11.7568
▁Terror	-11.7568
▁Michel	-11.7568
▁secretary	-11.7569
▁spout	-11.7569
▁possesses	-11.7569
Class	-11.7569
characterisation	-11.7569
oison	-11.757
▁Leno	-11.757
▁cub	-11.757
STER	-11.757
▁duck	-11.757
▁Game	-11.757
▁scout	-11.7571
▁STA	-11.7571
Comments	-11.7571
▁contribution	-11.7571
▁Hmm	-11.7572
▁Nata	-11.7572
▁morality	-11.7572
▁HOL	-11.7573
▁Lola	-11.7573
river	-11.7573
▁Doom	-11.7573
▁passage	-11.7574
▁AWAY	-11.7574
▁diverse	-11.7574
▁progresses	-11.7575
door	-11.7576
▁consideration	-11.7576
▁madness	-11.7576
▁Book	-11.7577
▁Fight	-11.7578
TEN	-11.7578
▁Inki	-11.7578
▁comeback	-11.7578
▁golden	-11.7578
▁Christianity	-11.7579
▁Beck	-11.758
▁Raci	-11.758
Underworld	-11.7581
▁shall	-11.7582
ilian	-11.7582
▁tenant	-11.7582
▁divorced	-11.7583
▁eliminated	-11.7583
fication	-11.7583
▁Maria	-11.7583
▁sickness	-11.7584
▁Wick	-11.7585
gymnast	-11.7585
▁Apes	-11.7585
▁Manson	-11.7587
ogether	-11.7588
▁overcome	-11.7588
▁neo	-11.7589
▁cage	-11.7591
tangle	-11.7592
▁stale	-11.7593
▁Vietnames	-11.7594
▁selfish	-11.7594
▁headline	-11.7595
ACE	-11.7595
▁punches	-11.7596
▁kit	-11.7597
▁perfection	-11.7598
▁perpetual	-11.7599
▁Want	-11.76
▁hellish	-11.76
▁imitate	-11.7603
wear	-11.7603
▁peak	-11.7605
destructi	-11.7607
▁Worse	-11.7607
▁universal	-11.7611
▁capitalize	-11.7611
▁urin	-11.7611
▁Cave	-11.7611
▁Sue	-11.7612
been	-11.7613
▁overrated	-11.7613
▁Forty	-11.7615
▁Julian	-11.7615
▁Five	-11.7616
▁Him	-11.7617
▁Twin	-11.7621
▁kin	-11.7629
rleans	-11.763
opping	-11.7632
▁cus	-11.7633
▁touches	-11.7634
▁Song	-11.7634
engi	-11.7634
mpered	-11.7635
She	-11.7637
77	-11.7639
▁menu	-11.7642
▁CG	-11.7645
▁square	-11.7659
guise	-11.7663
▁shave	-11.7676
zel	-11.768
▁Josh	-11.7681
▁Russ	-11.7681
▁bowl	-11.7685
▁rage	-11.7693
plight	-11.7696
▁Rest	-11.7696
awyer	-11.7704
▁Middle	-11.7705
endel	-11.7708
▁Barb	-11.7708
▁flipp	-11.7717
soft	-11.7731
Patti	-11.7732
▁Kara	-11.7734
▁sympathize	-11.7739
▁toleran	-11.7748
▁shak	-11.7756
identifi	-11.7783
▁demean	-11.7794
true	-11.7808
▁tendenc	-11.7815
ggers	-11.7835
Free	-11.7847
media	-11.7853
arrangement	-11.7863
▁Perl	-11.7883
hur	-11.7889
▁vet	-11.793
Congo	-11.7936
▁Thor	-11.7937
90%	-11.7951
chin	-11.7953
▁arriv	-11.7957
uza	-11.7973
▁tub	-11.7981
1965	-11.7983
▁shameful	-11.7995
matter	-11.8011
Etern	-11.8017
ervice	-11.8024
effe	-11.8027
▁mumbl	-11.8041
Ewan	-11.8058
road	-11.809
▁Romania	-11.81
Lowe	-11.8126
▁Friend	-11.8131
▁slipp	-11.8132
west	-11.8143
▁Ball	-11.8151
liance	-11.8191
rough	-11.8192
ANG	-11.8194
freeze	-11.8213
84	-11.8255
arious	-11.8284
▁fogg	-11.8292
▁realiz	-11.8307
▁comfort	-11.8318
ontaine	-11.8318
▁Trip	-11.8321
▁Luck	-11.8338
▁Sonn	-11.8351
▁sunk	-11.8366
Anim	-11.8386
logs	-11.8401
ledge	-11.8445
ripp	-11.8471
oggy	-11.8498
▁Hug	-11.8522
▁explor	-11.8533
▁$7	-11.8565
EST	-11.8651
truck	-11.871
astic	-11.8724
active	-11.8734
pressed	-11.8749
▁fantastical	-11.875
OH	-11.8762
HAT	-11.8778
▁Fast	-11.8785
Luci	-11.8789
enetic	-11.8792
▁rescu	-11.8793
AH	-11.8796
literal	-11.8823
pole	-11.8862
vor	-11.8875
76	-11.8887
▁presum	-11.8906
▁Petr	-11.8915
THEN	-11.9013
▁unimpress	-11.9052
prise	-11.9054
quarters	-11.9074
▁requir	-11.9077
SOME	-11.9114
▁enthusias	-11.915
high	-11.9169
Cheers	-11.9175
Lori	-11.9207
plicate	-11.9215
urious	-11.9219
tres	-11.9255
▁85	-11.9368
mple	-11.9379
EAN	-11.942
▁concentrat	-11.9432
▁recreat	-11.9502
▁scum	-11.9516
guil	-11.9538
▁brav	-11.9587
deserving	-11.9617
solved	-11.962
placement	-11.9656
erald	-11.9658
windle	-11.9675
tract	-11.968
meaning	-11.9702
nails	-11.9725
▁prim	-11.9728
▁Serv	-11.9762
▁Brother	-11.9766
cluded	-11.9772
▁195	-11.9772
▁survivor	-11.9773
▁Changi	-11.978
annibal	-11.9784
▁introduc	-11.9796
▁untru	-11.9798
47	-11.9811
▁flab	-11.9835
▁500	-11.9836
nybody	-11.9845
▁entr	-11.9876
▁surviv	-11.9886
Prom	-11.9891
occup	-11.9894
▁LU	-11.9901
▁decid	-11.9916
latter	-11.9945
ception	-11.9968
▁sigh	-11.9986
Direct	-11.9991
numbing	-11.9992
satisfied	-11.9993
Granted	-11.9994
worship	-11.9994
Battle	-11.9994
Honestly	-11.9994
▁compell	-11.9994
▁accord	-11.9994
Ghost	-11.9994
Lots	-11.9995
shirt	-11.9995
Laura	-11.9995
Family	-11.9995
public	-11.9995
dubbed	-11.9995
kind	-11.9996
normal	-11.9996
Read	-11.9996
comedic	-11.9996
Julia	-11.9996
social	-11.9996
Okay	-11.9996
freak	-11.9996
machine	-11.9996
mystery	-11.9996
Bruce	-11.9996
Dracula	-11.9996
professional	-11.9996
bottom	-11.9997
nonsense	-11.9997
climax	-11.9997
Charles	-11.9997
surprise	-11.9997
Perhaps	-11.9997
modern	-11.9997
villain	-11.9997
Like	-11.9997
murder	-11.9997
suspense	-11.9997
basically	-11.9997
build	-11.9997
please	-11.9997
English	-11.9997
expect	-11.9997
Angel	-11.9997
DVD	-11.9997
Baby	-11.9997
dream	-11.9998
decent	-11.9998
igator	-11.9998
shooting	-11.9998
passion	-11.9999
candy	-11.9999
aware	-12
Good	-12
jump	-12.0001
Paul	-12.0002
joke	-12.0003
Young	-12.0003
forward	-12.0003
dark	-12.0003
Lou	-12.0004
Save	-12.0005
apart	-12.0008
often	-12.0008
▁Swa	-12.0008
USE	-12.0008
SPOILERS	-12.0009
▁Murd	-12.0009
Over	-12.001
drive	-12.001
week	-12.001
reality	-12.0011
could	-12.0011
Myster	-12.0011
lift	-12.0012
▁Iraq	-12.0013
Wow	-12.0014
▁distinct	-12.0015
▁snip	-12.0017
sympath	-12.0017
▁happi	-12.002
▁thorough	-12.0021
▁Further	-12.0021
▁immediate	-12.0021
▁intend	-12.0022
Back	-12.0022
▁eliminate	-12.0023
▁resolve	-12.0024
▁divorce	-12.0024
▁advertise	-12.0024
▁muddle	-12.0025
▁execute	-12.0026
flow	-12.0026
▁gee	-12.0031
▁Vinc	-12.0033
▁portra	-12.0033
▁divers	-12.0034
▁compose	-12.0038
NNE	-12.005
▁thru	-12.005
▁responsib	-12.0051
▁impossib	-12.0051
▁posse	-12.0052
▁Europe	-12.0053
▁Walke	-12.0053
▁electric	-12.0054
exican	-12.0054
▁chuck	-12.0054
▁pupp	-12.0054
▁Clee	-12.0055
▁excess	-12.0055
ictoria	-12.0055
elevision	-12.0055
▁empha	-12.0055
▁document	-12.0055
▁summari	-12.0055
emorable	-12.0055
quot	-12.0056
▁Kurt	-12.0056
▁install	-12.0056
▁[19	-12.0056
matically	-12.0056
▁intellect	-12.0056
ashmi	-12.0056
TIME	-12.0056
ñ	-12.0056
aaaaa	-12.0056
spaghetti	-12.0056
▁Rodriguez	-12.0056
Francis	-12.0056
▁Thumb	-12.0056
Ausentes	-12.0056
Bodrov	-12.0056
Charmed	-12.0056
Enjoy	-12.0056
Enterprise	-12.0056
Florida	-12.0056
GAME	-12.0056
Genius	-12.0056
Impossible	-12.0056
LUM	-12.0056
Magnificent	-12.0056
POSSIBLE	-12.0056
Troilus	-12.0056
biologist	-12.0056
burgh	-12.0056
consequent	-12.0056
emocracy	-12.0056
exaggeration	-12.0056
jumbo	-12.0056
lucination	-12.0056
quisite	-12.0056
uuuu	-12.0056
ó	-12.0056
ö	-12.0056
▁(1941	-12.0056
▁1974	-12.0056
▁1979	-12.0056
▁1986	-12.0056
▁1988	-12.0056
▁Achilles	-12.0056
▁Amazon	-12.0056
▁Argentine	-12.0056
▁August	-12.0056
▁Aykroyd	-12.0056
▁BOMB	-12.0056
▁Biehn	-12.0056
▁Brotherhood	-12.0056
▁Buchanan	-12.0056
▁CALIGUL	-12.0056
▁CARNOSAUR	-12.0056
▁CLEAR	-12.0056
▁Caddyshack	-12.0056
▁Cinderella	-12.0056
▁Company	-12.0056
▁Covenant	-12.0056
▁Creepers	-12.0056
▁Crichton	-12.0056
▁Crisis	-12.0056
▁Cruelty	-12.0056
▁Cruise	-12.0056
▁Cruz	-12.0056
▁Demeter	-12.0056
▁Dialogue	-12.0056
▁Donlevy	-12.0056
▁Doohan	-12.0056
▁Dublin	-12.0056
▁Dvorak	-12.0056
▁Eduardo	-12.0056
▁Elliot	-12.0056
▁Entertainment	-12.0056
▁Escape	-12.0056
▁Estevez	-12.0056
▁FILM	-12.0056
▁GRAFFITTI	-12.0056
▁GREAT	-12.0056
▁Gilbey	-12.0056
▁Giphart	-12.0056
▁Godzilla	-12.0056
▁Gorcey	-12.0056
▁Gossett	-12.0056
▁Griswold	-12.0056
▁Guccione	-12.0056
▁Gypsy	-12.0056
▁Hardbodies	-12.0056
▁Herzog	-12.0056
▁Hundred	-12.0056
▁LILI	-12.0056
▁Lahti	-12.0056
▁Lampoon	-12.0056
▁Lombard	-12.0056
▁MARIANNE	-12.0056
▁MASSACRE	-12.0056
▁McDowell	-12.0056
▁McQueen	-12.0056
▁Messengers	-12.0056
▁Mountain	-12.0056
▁Mozart	-12.0056
▁Ogrodnik	-12.0056
▁Pacific	-12.0056
▁Pacino	-12.0056
▁Peace	-12.0056
▁Pennsylvania	-12.0056
▁Phoenix	-12.0056
▁Piranha	-12.0056
▁Polanski	-12.0056
▁Predictable	-12.0056
▁Problem	-12.0056
▁Psycho	-12.0056
▁Rejects	-12.0056
▁Revelation	-12.0056
▁Rhett	-12.0056
▁Ridiculous	-12.0056
▁Rohmer	-12.0056
▁Rommel	-12.0056
▁Sinatra	-12.0056
▁Sixties	-12.0056
▁Snipes	-12.0056
▁Spelling	-12.0056
▁Spencer	-12.0056
▁Suddenly	-12.0056
▁Summer	-12.0056
▁TERRIBL	-12.0056
▁THREE	-12.0056
▁Temujin	-12.0056
▁UFO	-12.0056
▁Underground	-12.0056
▁Usually	-12.0056
▁WESTERN	-12.0056
▁WRONG	-12.0056
▁Wayans	-12.0056
▁abilities	-12.0056
▁accuracy	-12.0056
▁adolescen	-12.0056
▁ammunition	-12.0056
▁amusement	-12.0056
▁architect	-12.0056
▁aristocrat	-12.0056
▁assistance	-12.0056
▁atrocity	-12.0056
▁audacious	-12.0056
▁babysitter	-12.0056
▁beggars	-12.0056
▁bewildered	-12.0056
▁boulders	-12.0056
▁bullshit	-12.0056
▁bungling	-12.0056
▁caution	-12.0056
▁celebrate	-12.0056
▁challenging	-12.0056
▁champion	-12.0056
▁chronological	-12.0056
▁conceivable	-12.0056
▁concrete	-12.0056
▁contempt	-12.0056
▁creepiness	-12.0056
▁daft	-12.0056
▁decapitate	-12.0056
▁decapitation	-12.0056
▁deplorable	-12.0056
▁dimwit	-12.0056
▁dishonest	-12.0056
▁distribution	-12.0056
▁documentaries	-12.0056
▁eccentric	-12.0056
▁emergency	-12.0056
▁empathize	-12.0056
▁equivalent	-12.0056
▁evacuate	-12.0056
▁extravaganza	-12.0056
▁fascinate	-12.0056
▁fascination	-12.0056
▁flimsy	-12.0056
▁fundamental	-12.0056
▁graduate	-12.0056
▁haphazard	-12.0056
▁hilarity	-12.0056
▁homicide	-12.0056
▁horrified	-12.0056
▁housekeeper	-12.0056
▁hybrid	-12.0056
▁hypocri	-12.0056
▁implants	-12.0056
▁impregnate	-12.0056
▁inaccuracy	-12.0056
▁infantile	-12.0056
▁institution	-12.0056
▁integrity	-12.0056
▁jackass	-12.0056
▁laptop	-12.0056
▁loathsome	-12.0056
▁lunatic	-12.0056
▁mannequin	-12.0056
▁marginal	-12.0056
▁mausoleum	-12.0056
▁monitor	-12.0056
▁murky	-12.0056
▁narrates	-12.0056
▁narrow	-12.0056
▁nervous	-12.0056
▁nutshell	-12.0056
▁obscurity	-12.0056
▁ominous	-12.0056
▁omitted	-12.0056
▁organisation	-12.0056
▁peasant	-12.0056
▁photocopy	-12.0056
▁poetry	-12.0056
▁ponderous	-12.0056
▁preposterous	-12.0056
▁prolific	-12.0056
▁psychology	-12.0056
▁radical	-12.0056
▁rambling	-12.0056
▁relevance	-12.0056
▁repulsive	-12.0056
▁resource	-12.0056
▁rhyme	-12.0056
▁schedule	-12.0056
▁skateboard	-12.0056
▁sleepwalk	-12.0056
▁sloppy	-12.0056
▁smarmy	-12.0056
▁stooge	-12.0056
▁supplie	-12.0056
▁synthesi	-12.0056
▁syphilis	-12.0056
▁temporarily	-12.0056
▁tentacle	-12.0056
▁tribulation	-12.0056
▁unconsciousness	-12.0056
▁unintelligible	-12.0056
▁unsettling	-12.0056
▁virtue	-12.0056
▁vixen	-12.0056
▁'70	-12.0056
▁BOOM	-12.0056
▁Britney	-12.0056
▁CERN	-12.0056
▁Caribe	-12.0056
▁Castle	-12.0056
▁Columbus	-12.0056
▁Commun	-12.0056
▁Cortese	-12.0056
▁Dunaway	-12.0056
▁Essential	-12.0056
▁Francisco	-12.0056
▁Hilary	-12.0056
▁Liberal	-12.0056
▁Nessie	-12.0056
▁Nicola	-12.0056
▁POV	-12.0056
▁Pakistan	-12.0056
▁Rourke	-12.0056
▁Voight	-12.0056
▁WRIT	-12.0056
▁Zucco	-12.0056
▁accompany	-12.0056
▁bimbo	-12.0056
▁competitor	-12.0056
▁constructed	-12.0056
▁critter	-12.0056
▁darling	-12.0056
▁despair	-12.0056
▁graffit	-12.0056
▁henchmen	-12.0056
▁implement	-12.0056
▁inadequate	-12.0056
▁inadvert	-12.0056
▁industrial	-12.0056
▁insurance	-12.0056
▁interrogat	-12.0056
▁lavish	-12.0056
▁leather	-12.0056
▁masturbat	-12.0056
▁pagan	-12.0056
▁penalty	-12.0056
▁polite	-12.0056
▁preserve	-12.0056
▁purport	-12.0056
▁radar	-12.0056
▁sandwich	-12.0056
▁shovel	-12.0056
▁squint	-12.0056
▁surpass	-12.0056
Prisoner	-12.0056
articulate	-12.0056
assandra	-12.0056
mouthed	-12.0056
zzz	-12.0056
▁Additiona	-12.0056
▁Camera	-12.0056
▁Claud	-12.0056
▁Follow	-12.0056
▁Forlani	-12.0056
▁Hatfield	-12.0056
▁Keith	-12.0056
▁Louisiana	-12.0056
▁Rachel	-12.0056
▁SEX	-12.0056
▁Ugh	-12.0056
▁WOW	-12.0056
▁approv	-12.0056
▁astounding	-12.0056
▁cigarettes	-12.0056
▁clutch	-12.0056
▁deteriorat	-12.0056
▁download	-12.0056
▁envy	-12.0056
▁fluid	-12.0056
▁lumpy	-12.0056
▁masquerad	-12.0056
▁millionaire	-12.0056
▁pattern	-12.0056
▁pulse	-12.0056
▁pupil	-12.0056
▁repetitio	-12.0056
▁seductive	-12.0056
▁surrender	-12.0056
▁throne	-12.0056
▁tyrant	-12.0056
▁unleash	-12.0056
▁wreak	-12.0056
EEP	-12.0056
▁Byrne	-12.0056
▁CHAR	-12.0056
▁Nadia	-12.0056
▁Notebook	-12.0056
▁Toulon	-12.0056
▁Walsh	-12.0056
▁thumb	-12.0056
▁warehouse	-12.0056
▁whale	-12.0056
90210	-12.0056
Frankenstein	-12.0056
▁Aussie	-12.0056
▁Calvin	-12.0056
▁conceit	-12.0056
▁dentures	-12.0056
▁dross	-12.0056
▁pioneer	-12.0056
▁raptors	-12.0056
▁refund	-12.0056
▁warfare	-12.0056
VOI	-12.0057
Violence	-12.0057
▁TIMES	-12.0057
▁Waye	-12.0057
▁efficien	-12.0057
▁orchestra	-12.0057
▁stabbed	-12.0057
▁wisdom	-12.0057
▁Conrad	-12.0057
▁Eastern	-12.0057
▁Impact	-12.0057
▁Monday	-12.0057
▁replies	-12.0057
▁southern	-12.0057
▁weaknesses	-12.0057
Screen	-12.0057
▁applie	-12.0057
▁captions	-12.0057
▁cheque	-12.0057
-80	-12.0057
▁Hauer	-12.0057
▁kitsch	-12.0057
▁parrot	-12.0057
coherence	-12.0057
▁Hurst	-12.0057
▁Passion	-12.0057
▁deleted	-12.0057
▁justifiabl	-12.0057
▁motif	-12.0057
▁theoretical	-12.0057
▁genital	-12.0057
▁Cross	-12.0057
▁recur	-12.0057
▁Renee	-12.0057
▁SEE	-12.0057
▁bonus	-12.0057
▁flush	-12.0057
▁manhood	-12.0057
▁midget	-12.0057
▁sincerity	-12.0057
▁Shepard	-12.0057
▁appeti	-12.0057
▁unstable	-12.0057
▁Potter	-12.0057
▁Tweed	-12.0057
HEAD	-12.0057
▁Kashmir	-12.0057
▁Katie	-12.0057
▁Valentine	-12.0057
▁banter	-12.0057
▁whisper	-12.0057
▁Quinn	-12.0057
▁instructor	-12.0057
thodo	-12.0057
▁eleven	-12.0057
Ultimately	-12.0057
▁Ugly	-12.0057
▁Vidal	-12.0057
▁Hawaii	-12.0057
▁Reiner	-12.0057
▁capacit	-12.0057
▁immor	-12.0057
▁relieved	-12.0057
▁EVERYTHING	-12.0057
▁knee	-12.0057
NAKE	-12.0057
Shutter	-12.0057
▁Besser	-12.0057
▁foremost	-12.0057
▁Center	-12.0057
▁frightened	-12.0057
▁apologize	-12.0057
Compton	-12.0057
▁Painful	-12.0057
▁civilization	-12.0057
▁newcomer	-12.0057
▁1-3	-12.0057
massacre	-12.0057
▁Xmas	-12.0057
▁bloodsuck	-12.0057
▁Sense	-12.0057
QUI	-12.0057
▁Kingsley	-12.0057
▁Point	-12.0057
▁cotton	-12.0057
bject	-12.0057
▁Spark	-12.0057
▁Therefore	-12.0057
▁crucifixion	-12.0057
▁glee	-12.0057
▁Smithee	-12.0057
▁advers	-12.0057
▁gull	-12.0057
▁orient	-12.0057
Savage	-12.0057
galaxy	-12.0057
▁Glass	-12.0057
▁amoral	-12.0057
▁animators	-12.0057
▁catchphrase	-12.0057
▁prompt	-12.0057
▁Shining	-12.0057
▁entity	-12.0057
▁Division	-12.0057
▁Ivory	-12.0057
▁gear	-12.0057
▁confine	-12.0057
▁steel	-12.0057
▁Sica	-12.0057
rgant	-12.0057
▁dismemberment	-12.0057
▁Command	-12.0057
▁miniature	-12.0057
▁Commission	-12.0057
▁Tension	-12.0057
▁dopey	-12.0057
▁peons	-12.0057
handedly	-12.0057
▁Gallo	-12.0057
▁slurs	-12.0057
▁savvy	-12.0057
▁arrow	-12.0057
▁scalp	-12.0057
▁0/10	-12.0057
▁Airport	-12.0057
▁Luckily	-12.0057
▁Midler	-12.0057
▁frost	-12.0057
▁gripping	-12.0057
▁Eastwood	-12.0057
▁Wonderful	-12.0057
holic	-12.0057
▁Samuel	-12.0057
▁wolf	-12.0057
▁rogue	-12.0057
▁vacu	-12.0057
▁expedit	-12.0057
▁Turkey	-12.0057
Euro	-12.0057
▁Fritz	-12.0057
▁strain	-12.0057
Oddly	-12.0057
▁Cliff	-12.0057
▁lynch	-12.0058
▁amused	-12.0058
▁Dickens	-12.0058
▁boast	-12.0058
Ordinar	-12.0058
▁Exodus	-12.0058
▁rode	-12.0058
▁mimic	-12.0058
▁Marcia	-12.0058
Files	-12.0058
▁collage	-12.0058
▁emphasize	-12.0058
▁strung	-12.0058
▁divine	-12.0058
▁android	-12.0058
▁Meyer	-12.0058
▁Stick	-12.0058
▁bulk	-12.0058
▁Florence	-12.0058
Daffy	-12.0058
▁ambition	-12.0058
▁unseen	-12.0058
▁Giov	-12.0058
carriage	-12.0058
▁tourist	-12.0058
▁Tower	-12.0058
arricade	-12.0058
▁Hamill	-12.0058
▁composition	-12.0058
▁distortion	-12.0058
▁$6	-12.0058
▁revolutionary	-12.0058
▁YES	-12.0058
▁Arrow	-12.0058
▁refine	-12.0058
▁Stella	-12.0058
▁electrician	-12.0058
▁sunset	-12.0058
▁GOOD	-12.0058
▁Mask	-12.0058
▁admirably	-12.0059
Regard	-12.0059
▁Bird	-12.0059
▁proclaim	-12.0059
▁Piper	-12.0059
▁chess	-12.0059
▁superhero	-12.0059
▁assert	-12.0059
streak	-12.0059
scope	-12.0059
pocalypse	-12.0059
▁knight	-12.0059
▁detract	-12.0059
▁gender	-12.0059
▁Quickie	-12.0059
▁$8	-12.0059
▁pump	-12.0059
▁blunt	-12.0059
▁Awards	-12.0059
▁Stacy	-12.0059
▁Lifetime	-12.0059
▁techno	-12.0059
▁glory	-12.0059
▁Morland	-12.0059
▁exploration	-12.0059
▁ethic	-12.0059
▁misplace	-12.0059
unshine	-12.0059
▁sickened	-12.0059
▁deranged	-12.0059
commun	-12.0059
▁victoria	-12.0059
saloon	-12.006
▁Belgian	-12.006
▁improvement	-12.006
▁extract	-12.006
▁salad	-12.006
▁mentor	-12.006
▁perky	-12.006
▁utilit	-12.006
▁breed	-12.006
▁nuance	-12.006
▁Fanny	-12.006
▁sugar	-12.006
▁Nelly	-12.006
▁rebellio	-12.006
▁Spring	-12.006
▁chock	-12.006
▁distinction	-12.0061
▁Fairies	-12.0061
▁expire	-12.0061
▁Diaz	-12.0061
▁parole	-12.0061
▁Jordanian	-12.0061
▁:-)	-12.0061
▁handgun	-12.0061
▁sentimentality	-12.0061
▁ditch	-12.0061
▁impart	-12.0061
gnes	-12.0061
▁cough	-12.0061
▁intact	-12.0061
▁predictably	-12.0061
▁Melani	-12.0061
▁haircut	-12.0061
▁differentiate	-12.0061
▁twitch	-12.0062
▁Huntley	-12.0062
▁conform	-12.0062
▁fox	-12.0062
▁Quick	-12.0062
▁stunk	-12.0062
▁Heston	-12.0062
▁Chop	-12.0062
▁Maxim	-12.0062
▁Martian	-12.0062
▁continuous	-12.0062
▁Funny	-12.0063
▁Wiley	-12.0063
Zoe	-12.0063
▁transformation	-12.0063
▁reptiles	-12.0063
▁Stack	-12.0063
▁Youtube	-12.0063
▁anticipation	-12.0063
▁Haack	-12.0063
futur	-12.0063
enchant	-12.0063
▁Tough	-12.0063
▁Zeus	-12.0063
▁Harley	-12.0063
▁comparable	-12.0064
▁Patty	-12.0064
▁Vienn	-12.0064
▁Flat	-12.0064
AAH	-12.0064
▁east	-12.0064
▁sunny	-12.0064
▁unfl	-12.0064
▁export	-12.0064
▁bloke	-12.0064
▁Lucian	-12.0064
▁Moreland	-12.0064
▁Perry	-12.0064
scrub	-12.0064
hima	-12.0065
▁cease	-12.0065
▁Cash	-12.0065
▁exposit	-12.0065
▁Lacy	-12.0065
▁foist	-12.0065
▁Rhon	-12.0065
▁crop	-12.0065
▁roam	-12.0066
▁safety	-12.0066
morous	-12.0066
▁pursuit	-12.0066
▁excel	-12.0066
▁discerni	-12.0066
▁restroom	-12.0066
▁rewritten	-12.0066
▁artwork	-12.0066
▁Depp	-12.0066
▁Dirt	-12.0066
▁Money	-12.0067
▁Robinson	-12.0067
▁Jeanne	-12.0067
▁Danson	-12.0067
▁2003	-12.0068
▁Rox	-12.0068
▁Torch	-12.0068
▁exec	-12.0068
▁Somehow	-12.0068
▁expand	-12.0068
▁highschool	-12.0068
▁Moreno	-12.0068
▁saddle	-12.0069
▁Thus	-12.0069
▁Marco	-12.0069
▁Board	-12.0069
▁Nurs	-12.0069
brush	-12.0069
▁pink	-12.007
▁Balk	-12.007
▁Serge	-12.007
herent	-12.0071
▁unclear	-12.0071
▁Jonas	-12.0071
▁Hendr	-12.0071
▁speechless	-12.0071
▁coward	-12.0072
▁COP	-12.0072
▁vary	-12.0072
▁beef	-12.0072
▁scarier	-12.0073
▁cried	-12.0073
▁Kress	-12.0073
▁Fear	-12.0073
▁clock	-12.0074
fusion	-12.0074
Valentin	-12.0074
▁noticing	-12.0074
mran	-12.0075
▁fright	-12.0076
▁Shir	-12.0076
▁fence	-12.0076
▁protection	-12.0077
▁Ohio	-12.0077
▁claw	-12.0078
▁composer	-12.0078
▁lean	-12.0078
▁abduction	-12.0078
▁agreement	-12.0079
▁Domin	-12.008
▁duh	-12.008
▁lash	-12.008
hief	-12.008
▁300	-12.0081
warf	-12.0081
▁Huh	-12.0082
▁limo	-12.0083
Lance	-12.0083
▁Reno	-12.0083
▁max	-12.0085
Améli	-12.0085
▁endorse	-12.0087
▁eeri	-12.0087
astard	-12.0088
▁branch	-12.0089
Caba	-12.0089
▁Keene	-12.0089
▁yo	-12.009
▁Hack	-12.0091
▁rave	-12.0091
▁disclos	-12.0091
eez	-12.0097
▁undef	-12.0097
conventional	-12.0108
bbie	-12.0118
▁cite	-12.0121
esert	-12.0125
▁dishe	-12.0127
worn	-12.0129
▁Supp	-12.0129
▁leak	-12.0129
▁Horri	-12.0129
▁matt	-12.0131
▁ghoul	-12.0131
istrict	-12.0146
Casting	-12.0166
gnor	-12.0167
▁Jad	-12.0168
anean	-12.0168
▁snipp	-12.0169
▁peaceful	-12.0173
ensible	-12.0177
▁dodg	-12.0178
▁Floo	-12.0184
ecently	-12.0185
1931	-12.0197
▁capabilit	-12.0211
▁greas	-12.0216
▁Milk	-12.0217
uthenticity	-12.0245
Lesl	-12.028
▁elde	-12.0285
HANG	-12.0295
▁scatter	-12.03
▁wipe	-12.031
Loose	-12.031
ATED	-12.0316
▁Nic	-12.0334
NOW	-12.0341
▁code	-12.0359
presidential	-12.036
▁degenerate	-12.0366
▁remov	-12.0417
▁Erik	-12.0432
paced	-12.0444
2002	-12.0479
thesis	-12.0507
▁supervis	-12.0549
▁cab	-12.0582
▁blurr	-12.0599
Tiny	-12.0602
▁clash	-12.0609
Luc	-12.0617
lbert	-12.0628
bike	-12.0635
▁juic	-12.0636
gious	-12.065
▁hypnoti	-12.0702
Trash	-12.071
▁audi	-12.0715
Alexand	-12.0816
▁unsur	-12.0836
Carmen	-12.0882
Parent	-12.0947
▁Medi	-12.0997
▁glu	-12.1011
shack	-12.1028
Mika	-12.1037
Alright	-12.1076
inding	-12.1108
▁plumb	-12.1154
hanging	-12.1194
▁brut	-12.1245
UNG	-12.1266
▁digg	-12.1317
elevator	-12.1376
slav	-12.1379
ooja	-12.1381
2000)	-12.1383
▁turb	-12.1432
Rex	-12.1461
artistry	-12.1523
OOD	-12.1589
▁racis	-12.1602
ODO	-12.1608
▁Combin	-12.1628
fluent	-12.1682
fair	-12.1702
ADE	-12.1713
TIC	-12.1783
sancti	-12.1812
apolog	-12.1847
▁resembl	-12.1944
▁satiriz	-12.2001
▁Kari	-12.2035
Carly	-12.2042
▁rais	-12.2153
▁Abi	-12.2172
▁Darb	-12.2208
▁reci	-12.2465
umpkin	-12.2497
haka	-12.2546
Pod	-12.2625
▁prais	-12.2639
▁Lak	-12.2681
vision	-12.2681
boiler	-12.2693
LIN	-12.2777
dudes	-12.2803
▁Sli	-12.2825
▁rou	-12.2836
Frankly	-12.2862
rainy	-12.2904
▁tast	-12.3015
ounty	-12.3057
uzzy	-12.3061
intentionally	-12.3085
trus	-12.3166
alactic	-12.3173
▁pacif	-12.3181
dvice	-12.3187
appropriate	-12.3218
ficient	-12.3225
▁trib	-12.3272
▁homo	-12.3272
▁choos	-12.3304
▁sadde	-12.3305
▁imitat	-12.3306
eaky	-12.3307
worth	-12.3308
template	-12.3315
=	-12.3319
related	-12.3324
EVER	-12.3326
phrase	-12.3326
Hollow	-12.3327
dropping	-12.3327
Alice	-12.3327
present	-12.3327
specific	-12.3327
Austin	-12.3327
Code	-12.3327
Club	-12.3327
Road	-12.3327
spoiler	-12.3328
split	-12.3328
scarecrow	-12.3328
Nazi	-12.3328
Dear	-12.3328
Death	-12.3328
Wait	-12.3328
Super	-12.3328
patient	-12.3328
Almost	-12.3328
laughter	-12.3328
wannabe	-12.3328
Chuck	-12.3328
Lady	-12.3329
Lloyd	-12.3329
exploitation	-12.3329
spoke	-12.3329
Awful	-12.3329
Plot	-12.3329
intellectual	-12.3329
Story	-12.3329
Camp	-12.3329
Karen	-12.3329
Though	-12.3329
Halloween	-12.333
Poor	-12.333
genius	-12.333
Charlie	-12.333
design	-12.333
length	-12.333
street	-12.333
Disney	-12.333
animal	-12.333
fantasy	-12.333
frame	-12.333
pretentious	-12.333
invent	-12.333
asochist	-12.333
masterpiece	-12.333
Film	-12.333
hilarious	-12.333
perfect	-12.333
Ryan	-12.333
Italian	-12.333
husband	-12.333
bomb	-12.3331
screenwriter	-12.3331
female	-12.3331
direction	-12.3331
picture	-12.3331
quality	-12.3331
writing	-12.3331
third	-12.3331
Steven	-12.3331
daughter	-12.3331
women	-12.3331
release	-12.3331
support	-12.3331
stupid	-12.3331
woman	-12.3331
music	-12.3331
first	-12.3331
better	-12.3332
culture	-12.3332
safe	-12.3333
felt	-12.3333
crappy	-12.3341
▁animat	-12.3341
▁arrest	-12.3343
Christin	-12.3343
flicted	-12.335
▁essential	-12.3354
variabl	-12.3357
▁applau	-12.3357
▁Korea	-12.3364
Possibl	-12.3365
▁possibilit	-12.3372
blood	-12.3373
▁Foreign	-12.3375
▁lacklust	-12.3376
sacrific	-12.3377
▁nostalgi	-12.3377
▁cohesi	-12.3378
sibly	-12.338
▁anticipat	-12.3381
▁nausea	-12.3384
▁Belgi	-12.3386
semblance	-12.3386
UCK	-12.3386
▁avail	-12.3387
eautiful	-12.3387
▁Wonder	-12.3388
rivate	-12.3388
▁convers	-12.3388
scribe	-12.3388
upposedly	-12.3388
ategory	-12.3388
efense	-12.3388
ocumentary	-12.3389
▁detect	-12.3389
pisode	-12.3389
▁Advent	-12.3389
xtreme	-12.3389
ketch	-12.3389
elicit	-12.3389
▁(196	-12.3389
deemed	-12.339
▁advisor	-12.339
▁psyche	-12.339
Unspeak	-12.339
ordinar	-12.339
surveillance	-12.339
ü	-12.339
▁KIND	-12.339
▁conservat	-12.339
▁perennially	-12.339
▁pudding	-12.339
▁scantily	-12.339
▁uncertain	-12.339
ABLE	-12.339
Animator	-12.339
Bizarre	-12.339
Chapelle	-12.339
Coronado	-12.339
Critters	-12.339
Elephant	-12.339
Emraan	-12.339
Flashback	-12.339
Folk	-12.339
Governor	-12.339
Gyllenhaal	-12.339
Joaqui	-12.339
Kristofferson	-12.339
Miracle	-12.339
Perfect	-12.339
Traffic	-12.339
activist	-12.339
biographies	-12.339
climatic	-12.339
confidence	-12.339
ertificate	-12.339
flamethrower	-12.339
imultaneously	-12.339
malgam	-12.339
minators	-12.339
mplications	-12.339
ological	-12.339
ophile	-12.339
podge	-12.339
repugnant	-12.339
ristocracy	-12.339
tabloid	-12.339
}	-12.339
	-12.339
▁(2004)	-12.339
▁/>2/5	-12.339
▁1983	-12.339
▁1989	-12.339
▁1997	-12.339
▁24/7	-12.339
▁7/11	-12.339
▁ACTUAL	-12.339
▁ALERT	-12.339
▁AROUND	-12.339
▁AWFUL	-12.339
▁Aurora	-12.339
▁Auteuil	-12.339
▁Bachchan	-12.339
▁Balderson	-12.339
▁Beethoven	-12.339
▁Bucharest	-12.339
▁Buscemi	-12.339
▁Ceremony	-12.339
▁Chaplin	-12.339
▁Cleaner	-12.339
▁Convention	-12.339
▁Coscarelli	-12.339
▁Criminal	-12.339
▁Deneuve	-12.339
▁Dennehy	-12.339
▁Development	-12.339
▁Disappear	-12.339
▁EARTH	-12.339
▁ESPN	-12.339
▁Eckhart	-12.339
▁Edinburgh	-12.339
▁Eleniak	-12.339
▁Entertainer	-12.339
▁Examiner	-12.339
▁Examples	-12.339
▁Excellen	-12.339
▁FUNNY	-12.339
▁Fingerling	-12.339
▁Flavia	-12.339
▁Fragata	-12.339
▁François	-12.339
▁GEEK	-12.339
▁GREEN	-12.339
▁Gedran	-12.339
▁Gittai	-12.339
▁Goldthwait	-12.339
▁Greengrass	-12.339
▁Grenier	-12.339
▁Grisham	-12.339
▁HORRIBLE	-12.339
▁Haiduk	-12.339
▁Hasselhof	-12.339
▁Hopkins	-12.339
▁Isabella	-12.339
▁Islamic	-12.339
▁Jaclyn	-12.339
▁January	-12.339
▁Kansas	-12.339
▁Karpathy	-12.339
▁Katrina	-12.339
▁LAME	-12.339
▁Leconte	-12.339
▁Lithgow	-12.339
▁Lugosi	-12.339
▁Macbeth	-12.339
▁Magdalene	-12.339
▁Malkovich	-12.339
▁McGinley	-12.339
▁McGow	-12.339
▁Melbourne	-12.339
▁Miyazaki	-12.339
▁Mockingbird	-12.339
▁Morocc	-12.339
▁Moscow	-12.339
▁Muslim	-12.339
▁Mwanza	-12.339
▁Naqoyqatsi	-12.339
▁Nebraska	-12.339
▁Nielsen	-12.339
▁OVER	-12.339
▁Occasionally	-12.339
▁PARTY	-12.339
▁Patriot	-12.339
▁Potemkin	-12.339
▁Predictably	-12.339
▁Producer	-12.339
▁Production	-12.339
▁Project	-12.339
▁Pumpkinhead	-12.339
▁Queirós	-12.339
▁RINGU	-12.339
▁ROCK	-12.339
▁Railsback	-12.339
▁Rapaport	-12.339
▁Rothbart	-12.339
▁Ryoko	-12.339
▁SCRAM	-12.339
▁SCREEN	-12.339
▁SEANCE	-12.339
▁SOLDIERS	-12.339
▁Sabbath	-12.339
▁Salmon	-12.339
▁Sarandon	-12.339
▁Schenke	-12.339
▁Schijf	-12.339
▁Scrimm	-12.339
▁Seattle	-12.339
▁Senator	-12.339
▁Seymour	-12.339
▁Singapore	-12.339
▁Slugs	-12.339
▁THINK	-12.339
▁Thersites	-12.339
▁Tibbs	-12.339
▁Translation	-12.339
▁UNDER	-12.339
▁Vancouver	-12.339
▁Venezuela	-12.339
▁Verghese	-12.339
▁Verhoeven	-12.339
▁Waltz	-12.339
▁XXX	-12.339
▁Yankee	-12.339
▁ZOMBIE	-12.339
▁[1946]	-12.339
▁accelerat	-12.339
▁acquaintances	-12.339
▁activity	-12.339
▁aficionado	-12.339
▁alphabet	-12.339
▁amputation	-12.339
▁appalled	-12.339
▁applica	-12.339
▁aspirations	-12.339
▁attorney	-12.339
▁brothel	-12.339
▁calculations	-12.339
▁calibre	-12.339
▁catalogue	-12.339
▁catastroph	-12.339
▁categories	-12.339
▁cemetery	-12.339
▁chaotic	-12.339
▁chauvinist	-12.339
▁chocolate	-12.339
▁circula	-12.339
▁clunker	-12.339
▁cocaine	-12.339
▁cockroach	-12.339
▁complement	-12.339
▁condescending	-12.339
▁connoisseur	-12.339
▁conspirator	-12.339
▁continent	-12.339
▁corporation	-12.339
▁creepier	-12.339
▁critique	-12.339
▁cryogenics	-12.339
▁culprit	-12.339
▁cynicism	-12.339
▁dazzl	-12.339
▁delinquents	-12.339
▁delusional	-12.339
▁demographic	-12.339
▁denominator	-12.339
▁denouement	-12.339
▁deprav	-12.339
▁diabolical	-12.339
▁diamond	-12.339
▁dilemma	-12.339
▁disciple	-12.339
▁discrimination	-12.339
▁dispatch	-12.339
▁dispens	-12.339
▁dizzy	-12.339
▁domestic	-12.339
▁dungeon	-12.339
▁emperor	-12.339
▁enforcement	-12.339
▁engender	-12.339
▁epidemic	-12.339
▁epitom	-12.339
▁expelled	-12.339
▁exploding	-12.339
▁fabric	-12.339
▁fantasies	-12.339
▁flourish	-12.339
▁fugitive	-12.339
▁furniture	-12.339
▁gambling	-12.339
▁gesture	-12.339
▁grenade	-12.339
▁heartstrings	-12.339
▁helmet	-12.339
▁hodge	-12.339
▁homesteaders	-12.339
▁hurricane	-12.339
▁indifference	-12.339
▁infomercial	-12.339
▁infuriat	-12.339
▁ingenious	-12.339
▁innuendo	-12.339
▁insecure	-12.339
▁insufferable	-12.339
▁intercourse	-12.339
▁intermittent	-12.339
▁intricate	-12.339
▁intrude	-12.339
▁irresponsible	-12.339
▁irritation	-12.339
▁jewish	-12.339
▁juggl	-12.339
▁landlord	-12.339
▁luggage	-12.339
▁machismo	-12.339
▁manipulative	-12.339
▁masculinity	-12.339
▁maximum	-12.339
▁melancholy	-12.339
▁mercenary	-12.339
▁metaphor	-12.339
▁mockumentary	-12.339
▁moustache	-12.339
▁multitude	-12.339
▁nauseum	-12.339
▁nephew	-12.339
▁occurrence	-12.339
▁oxygen	-12.339
▁paragraph	-12.339
▁piranha	-12.339
▁platinum	-12.339
▁platitud	-12.339
▁policy	-12.339
▁precaution	-12.339
▁primitive	-12.339
▁prosecut	-12.339
▁prosthetics	-12.339
▁provoke	-12.339
▁publishe	-12.339
▁puerile	-12.339
▁puzzling	-12.339
▁rearranged	-12.339
▁rehabilitated	-12.339
▁relevant	-12.339
▁reluctant	-12.339
▁rendition	-12.339
▁retelling	-12.339
▁revisionist	-12.339
▁rhythm	-12.339
▁sabotage	-12.339
▁satirical	-12.339
▁satisfaction	-12.339
▁sculpture	-12.339
▁shriek	-12.339
▁shuffling	-12.339
▁silhouette	-12.339
▁silicon	-12.339
▁silliness	-12.339
▁spectacle	-12.339
▁spectator	-12.339
▁speculati	-12.339
▁speleologist	-12.339
▁spontaneous	-12.339
▁statuette	-12.339
▁suffice	-12.339
▁sweetheart	-12.339
▁syndicate	-12.339
▁synonymous	-12.339
▁technician	-12.339
▁telegraph	-12.339
▁telekinetic	-12.339
▁throttle	-12.339
▁transplant	-12.339
▁trappings	-12.339
▁trollop	-12.339
▁udders	-12.339
▁uncontrollabl	-12.339
▁underestimate	-12.339
▁undergarment	-12.339
▁underpopulated	-12.339
▁understatement	-12.339
▁uneasy	-12.339
▁unexciting	-12.339
▁unlucky	-12.339
▁unravel	-12.339
▁volunteer	-12.339
▁voodoo	-12.339
▁watermelon	-12.339
Hatchet	-12.339
OOOOO	-12.339
Platoon	-12.339
Written	-12.339
hahaha	-12.339
reservation	-12.339
▁(1996)	-12.339
▁Addison	-12.339
▁Avenger	-12.339
▁Bebble	-12.339
▁Collection	-12.339
▁Craven	-12.339
▁Darnell	-12.339
▁FRONT	-12.339
▁Geek	-12.339
▁Kinski	-12.339
▁Kronk	-12.339
▁McGuff	-12.339
▁McMurt	-12.339
▁Scamp	-12.339
▁WANT	-12.339
▁Wharton	-12.339
▁Wilki	-12.339
▁ancestor	-12.339
▁candidate	-12.339
▁cocktail	-12.339
▁compensat	-12.339
▁congratulat	-12.339
▁embryo	-12.339
▁gadget	-12.339
▁incomparabl	-12.339
▁jumble	-12.339
▁laboured	-12.339
▁redempti	-12.339
▁soooooo	-12.339
▁vulnerab	-12.339
▁yield	-12.339
***************	-12.339
Focus	-12.339
alestinian	-12.339
boggl	-12.339
oblivio	-12.339
▁Archive	-12.339
▁Assante	-12.339
▁Bloodstone	-12.339
▁COOL	-12.339
▁Credit	-12.339
▁Duncan	-12.339
▁Giallo	-12.339
▁Kalidor	-12.339
▁Letterman	-12.339
▁Lolita	-12.339
▁Reagan	-12.339
▁Straight	-12.339
▁Teenage	-12.339
▁Temple	-12.339
▁Thurman	-12.339
▁Tokyo	-12.339
▁Trumbo	-12.339
▁ambitious	-12.339
▁bloodletting	-12.339
▁brainwash	-12.339
▁burden	-12.339
▁captioning	-12.339
▁constipat	-12.339
▁cretin	-12.339
▁dildo	-12.339
▁disrespect	-12.339
▁dreari	-12.339
▁embark	-12.339
▁extraneous	-12.339
▁guru	-12.339
▁hesitation	-12.339
▁hulking	-12.339
▁hunchback	-12.339
▁impaired	-12.339
▁insects	-12.339
▁mortified	-12.339
▁peppy	-12.339
▁phant	-12.339
▁politicians	-12.339
▁ravag	-12.339
▁sausage	-12.339
▁savior	-12.339
▁scissors	-12.339
▁sensibilit	-12.339
▁slayer	-12.339
▁sweeping	-12.339
▁testament	-12.339
▁videotape	-12.339
Destroy	-12.339
▁BAND	-12.339
▁Cheadle	-12.339
▁Daughter	-12.339
▁SAND	-12.339
▁Sheldon	-12.339
▁Sykes	-12.339
▁cronies	-12.339
▁crooked	-12.339
▁dignity	-12.339
▁indecipherable	-12.339
▁justification	-12.339
▁mastermind	-12.339
▁phase	-12.339
▁prolonged	-12.339
▁puking	-12.339
▁senior	-12.339
▁sensual	-12.339
▁vapid	-12.339
▁violin	-12.339
▁williams	-12.339
RAIN	-12.339
crucifix	-12.339
mercifully	-12.339
mitigat	-12.339
tournament	-12.339
▁Amazing	-12.339
▁Bovon	-12.339
▁Brief	-12.339
▁Brigg	-12.339
▁Hitler	-12.339
▁Koyaanisq	-12.339
▁PPV	-12.339
▁Quo	-12.339
▁Regardless	-12.339
▁Trivett	-12.339
▁apprais	-12.339
▁frigg	-12.339
▁glutton	-12.339
▁overwrought	-12.339
▁prud	-12.339
▁radiat	-12.339
▁rehash	-12.339
▁salvage	-12.339
▁sparse	-12.339
▁squeal	-12.339
▁verdict	-12.339
onymous	-12.339
▁Blake	-12.339
▁Cooper	-12.339
▁Dustin	-12.339
▁Raido	-12.339
▁Slasher	-12.339
▁TMN	-12.339
▁patrons	-12.339
PLANE	-12.339
▁Bruck	-12.339
▁CEO	-12.339
▁Claus	-12.339
▁bleeding	-12.339
▁sensation	-12.339
▁uninvolving	-12.339
▁vault	-12.339
OCA	-12.339
arathon	-12.339
meister	-12.339
mischief	-12.339
▁Cohen	-12.339
▁treach	-12.339
Eastenders	-12.339
Harvard	-12.339
▁#2	-12.339
▁Collins	-12.339
▁MAY	-12.339
▁Orange	-12.339
▁Westwing	-12.339
▁cheesi	-12.339
▁closure	-12.339
▁dictat	-12.339
▁integrate	-12.339
▁thrive	-12.339
▁Heaven	-12.339
▁Warrior	-12.339
▁balloon	-12.339
▁manifest	-12.339
▁swordsmen	-12.339
▁tedium	-12.339
▁Clara	-12.339
▁MAG	-12.339
▁Soavi	-12.339
▁Xena	-12.339
▁conceal	-12.339
▁hobo	-12.339
▁reenactments	-12.339
▁snowballs	-12.339
▁Elwes	-12.339
▁LDS	-12.339
▁LSD	-12.339
▁Tube	-12.339
▁collaborati	-12.339
▁costuming	-12.339
▁eyebrows	-12.339
▁gamble	-12.339
▁Steele	-12.339
▁bicker	-12.339
▁bleak	-12.339
▁diaper	-12.339
▁dismay	-12.339
▁dysfunction	-12.339
▁spear	-12.339
pods	-12.339
palabra	-12.339
▁Secor	-12.339
▁commend	-12.339
▁gaudy	-12.339
▁knit	-12.339
bearded	-12.339
▁Andersson	-12.339
▁Cutter	-12.339
▁Motors	-12.339
▁untouch	-12.339
▁Surprisingly	-12.339
▁carnage	-12.339
▁homeschooler	-12.339
ophie	-12.339
▁electronic	-12.339
▁omni	-12.339
▁Alexander	-12.339
▁collapse	-12.339
▁submit	-12.339
▁Bucky	-12.339
▁Holmes	-12.339
▁hammer	-12.339
leeze	-12.339
▁MIN	-12.339
▁(1966)	-12.339
▁Malone	-12.339
▁Mendes	-12.339
▁detour	-12.339
▁fiddl	-12.339
▁mannerisms	-12.339
▁occupy	-12.339
▁worm	-12.339
▁barrel	-12.339
▁riff	-12.339
▁abroad	-12.339
▁academ	-12.339
▁Suz	-12.339
▁motto	-12.339
▁Mediterr	-12.339
▁inundat	-12.339
▁iota	-12.339
▁isolated	-12.339
▁Genesis	-12.339
Clockwork	-12.339
▁Ebert	-12.339
▁transpir	-12.339
▁heiress	-12.339
▁rustle	-12.339
Camille	-12.339
hwaa	-12.339
HAI	-12.339
▁Gator	-12.339
▁acquit	-12.339
▁spelt	-12.339
▁Rosali	-12.339
▁wrongdoer	-12.339
▁organization	-12.339
▁Rhys	-12.339
▁Merri	-12.339
▁protest	-12.339
▁Doyle	-12.339
▁Gilbert	-12.339
▁Rubinstein	-12.339
▁octopus	-12.339
▁sperm	-12.339
▁Grudge	-12.339
aboutit	-12.339
▁injure	-12.339
▁Pettet	-12.339
▁Jared	-12.339
▁resident	-12.339
▁swordsman	-12.339
reviously	-12.339
enburg	-12.339
runken	-12.339
▁spree	-12.339
▁derive	-12.339
extraterrestrial	-12.339
▁auction	-12.339
AID	-12.339
▁instruction	-12.339
▁jocks	-12.339
▁CIT	-12.339
▁carpet	-12.339
▁Spot	-12.339
▁skirt	-12.339
▁pissing	-12.339
▁slander	-12.339
▁Drugs	-12.339
▁(1962)	-12.339
burger	-12.339
▁aloof	-12.339
mongering	-12.3391
▁Early	-12.3391
▁McKe	-12.3391
▁Montana	-12.3391
▁harbor	-12.3391
▁Haines	-12.3391
▁Reese	-12.3391
▁commission	-12.3391
▁division	-12.3391
▁Olivetti	-12.3391
▁[196	-12.3391
▁Abel	-12.3391
▁raid	-12.3391
▁cattle	-12.3391
▁Gimmi	-12.3391
hounds	-12.3391
Peppard	-12.3391
▁tomorrow	-12.3391
Nightbreed	-12.3391
▁underused	-12.3391
▁secular	-12.3391
▁perception	-12.3391
▁textbook	-12.3391
▁gruel	-12.3391
▁Wonderland	-12.3391
▁bandits	-12.3391
▁1977	-12.3391
▁meager	-12.3391
Message	-12.3391
▁Seuss	-12.3391
▁graveyard	-12.3391
atador	-12.3391
▁Chopper	-12.3391
▁Smart	-12.3391
▁enigma	-12.3391
▁babbl	-12.3391
▁Wilb	-12.3391
SSI	-12.3391
▁reused	-12.3391
▁ilk	-12.3391
▁Keys	-12.3391
▁Future	-12.3391
Sixth	-12.3391
▁resonate	-12.3391
▁titillati	-12.3391
audevill	-12.3391
▁laborious	-12.3391
▁captivating	-12.3391
▁expend	-12.3391
▁splendo	-12.3391
▁cutouts	-12.3391
Clonus	-12.3391
1/5	-12.3391
▁hetero	-12.3392
▁stride	-12.3392
▁vines	-12.3392
▁expens	-12.3392
▁feroci	-12.3392
furnish	-12.3392
orsaken	-12.3392
▁debt	-12.3392
▁Holden	-12.3392
▁germ	-12.3392
▁spray	-12.3392
Useless	-12.3392
▁Hagg	-12.3392
▁alleged	-12.3392
▁trunk	-12.3392
▁unsuspe	-12.3392
▁Harbor	-12.3392
▁incline	-12.3392
▁1936	-12.3392
▁Clair	-12.3392
▁Thirt	-12.3392
▁violat	-12.3392
▁Sucks	-12.3392
▁abyss	-12.3392
▁definat	-12.3392
▁Pegg	-12.3392
▁Harrow	-12.3392
▁Hubb	-12.3392
▁Iowa	-12.3392
umental	-12.3392
▁Swing	-12.3392
▁Forbes	-12.3393
▁stray	-12.3393
▁mags	-12.3393
▁Theatre	-12.3393
▁Brenda	-12.3393
Knock	-12.3393
budged	-12.3394
▁Excu	-12.3394
▁cremat	-12.3394
rpent	-12.3394
▁fancie	-12.3394
▁1,000	-12.3394
▁HAVE	-12.3394
Writing	-12.3394
▁fertil	-12.3394
Isaac	-12.3395
hapless	-12.3395
▁interfere	-12.3395
regain	-12.3396
▁Brav	-12.3396
elope	-12.3396
POS	-12.3396
cchio	-12.3397
ontrast	-12.3397
pologise	-12.3399
▁electi	-12.3399
monious	-12.34
▁Horn	-12.3401
ornado	-12.3402
Visual	-12.3402
▁daze	-12.3402
▁FLO	-12.3404
imdb	-12.3404
▁analog	-12.3405
mbass	-12.3406
ssimo	-12.3407
▁undermine	-12.3409
▁antholog	-12.3409
▁stagger	-12.341
▁EAT	-12.3411
▁Abhi	-12.3411
demand	-12.3412
ELO	-12.3413
▁Clare	-12.3415
indulgence	-12.3416
INN	-12.3418
▁soci	-12.3419
▁Smok	-12.3419
remors	-12.3427
▁Litera	-12.3433
▁pilla	-12.3435
LOAD	-12.3435
▁Angl	-12.3436
artoon	-12.3441
Anyho	-12.3446
▁LIV	-12.3449
▁masochis	-12.345
Curly	-12.3458
▁grizzl	-12.3462
▁Pierr	-12.3469
Murdock	-12.347
scrape	-12.3472
Cult	-12.3473
▁merc	-12.3478
1956	-12.3482
esthetically	-12.3492
▁reptil	-12.3495
▁constr	-12.35
▁Henri	-12.3501
1935	-12.3511
▁dramatiz	-12.3537
organized	-12.3543
▁colla	-12.3544
READ	-12.355
cloak	-12.3567
▁Gibb	-12.3572
▁contemplat	-12.36
1959	-12.3606
ccupation	-12.362
ighlander	-12.3631
▁heartbreak	-12.3741
Hannibal	-12.3779
Capri	-12.3788
civilis	-12.3822
Type	-12.3834
ISN	-12.3859
GIRLS	-12.3937
equate	-12.3949
polish	-12.3977
ncredible	-12.3984
▁rake	-12.3988
flex	-12.4003
uccessfully	-12.4058
▁FIN	-12.4077
believers	-12.4099
▁dru	-12.4105
Miner	-12.4119
▁Geral	-12.4187
▁BRI	-12.421
LAND	-12.4238
whiz	-12.4283
choolgirls	-12.4284
glance	-12.4324
Romance	-12.4348
Brien	-12.4385
▁Bren	-12.4551
actica	-12.4675
arcel	-12.4678
rticle	-12.4705
dependent	-12.4719
Twi	-12.4789
protective	-12.483
impressive	-12.4909
nsistent	-12.5241
spirited	-12.5379
partment	-12.5403
discovered	-12.5455
▁privilege	-12.5634
▁remarkabl	-12.5658
▁submissi	-12.5679
Twiste	-12.5937
Exit	-12.5964
gator	-12.6074
▁separat	-12.6127
▁reenact	-12.6295
strange	-12.6317
▁smuggl	-12.6379
Counter	-12.6435
graphic	-12.6504
▁substitut	-12.668
Characters	-12.6802
Friends	-12.6879
Scenes	-12.6983
▁Laugh	-12.6993
▁hypno	-12.7058
▁participa	-12.7072
successful	-12.7236
discovery	-12.7263
Witcher	-12.7361
1998	-12.7365
uniforms	-12.7376
▁GIRL	-12.7555
▁advocat	-12.7758
dissolve	-12.794
1/2	-12.8033
believe	-12.8058
▁Stooge	-12.8108
ncient	-12.8179
fraid	-12.8184
ttempt	-12.8187
▁univers	-12.8211
▁indulg	-12.8235
GHT	-12.8265
▁perpetua	-12.8266
rizzly	-12.8273
▁disturb	-12.8282
▁experienc	-12.8285
ejected	-12.8296
investigati	-12.8297
▁bubbl	-12.8297
▁qui	-12.8301
shadow	-12.8315
▁terrify	-12.8324
convincing	-12.8326
Ernest	-12.8326
Harrison	-12.8326
Nobody	-12.8326
Office	-12.8326
Scarlett	-12.8326
Steiger	-12.8326
Vacation	-12.8326
WARNING	-12.8326
Mongolian	-12.8326
Prince	-12.8326
pistol	-12.8326
believable	-12.8327
2006	-12.8327
Lynn	-12.8327
obsessed	-12.8327
sophisticated	-12.8327
Daniel	-12.8327
Blair	-12.8327
Personally	-12.8328
Return	-12.8328
Australian	-12.8328
Franco	-12.8328
Lawrence	-12.8328
retarded	-12.8328
Mencia	-12.8328
connect	-12.8329
▁uninterest	-12.8329
disturbed	-12.8329
explode	-12.8329
Clark	-12.8329
Matthew	-12.8329
significant	-12.8329
Jeff	-12.8329
Strange	-12.8329
Carlos	-12.8329
Murray	-12.8329
Liv	-12.8329
occasionally	-12.8329
Tarantino	-12.8329
Tarzan	-12.8329
acceptable	-12.8329
foreign	-12.8329
Himesh	-12.833
pleasure	-12.833
Vincent	-12.833
Stupid	-12.833
spoof	-12.833
drawn	-12.833
surprisingly	-12.833
	-13.8335
å	-15.0892
	-15.0893
ê	-15.0894
£	-15.0895
{	-15.0896
ã	-15.0897
́	-15.0898
~	-15.0899
[	-15.09
